/**
  ******************************************************************************
  * @file    network_ecblobs.h
  * @brief   NN Code autogenerated DO NOT MODIFY IT
  ******************************************************************************
  * @attention
  *
  * Copyright (c) 2024 STMicroelectronics.
  * All rights reserved.
  *
  * This software is licensed under terms that can be found in the LICENSE file
  * in the root directory of this software component.
  * If no LICENSE file comes with this software, it is provided AS-IS.
  *
  ******************************************************************************
  */


#ifdef __cplusplus
extern "C" {
#endif

#include "ll_aton_caches_interface.h"

#include <string.h>

#if !defined(ECBLOB_CONST_SECTION)
#define ECBLOB_CONST_SECTION /* Empty */
#endif
#if !defined(ECBLOB_RUNTIME_SECTION)
#define ECBLOB_RUNTIME_SECTION /* Empty */
#endif

ECBLOB_CONST_SECTION
// aligned to the cache line size (equal to 64 bytes)
__attribute__((aligned(64)))
static const uint64_t _ec_blob_network_1[30440] =
{
  0x0000edc0ca057a7aUL, 0x008020a10000003dUL, 0x0008c10028007c00UL, 0x342e000028020043UL,
  0x280500c300015f90UL, 0x00015f9000000000UL, 0x0000000000000000UL, 0x0010000000000024UL,
  0x00000006280c0042UL, 0x280d004300000007UL, 0x34321eef00000003UL, 0x0000000028110043UL,
  0x0080204100000000UL, 0x000800081c007c00UL, 0x342000001c020123UL, 0x00030001012c012cUL,
  0x0000000100000384UL, 0x00041eb000000003UL, 0x0010000000000024UL, 0x000000061c0c0042UL,
  0x1c0d004300000007UL, 0x34241eef00000003UL, 0x000000001c110043UL, 0x10047c0000000000UL,
  0x10007c000000000bUL, 0x1c00200100000001UL, 0x1c007fe428002001UL, 0x0000000000000064UL,
  0x0000000210007c00UL, 0x0000006410000424UL, 0x10007c0000000000UL, 0x10007bc440000000UL,
  0x0000000000000064UL, 0x0000000010047c00UL, 0x000000021c007c00UL, 0x000000641c000424UL,
  0x1c007c0000000000UL, 0x1c007bc440000000UL, 0x0000000000000064UL, 0x28007c0000800041UL,
  0x2800042400000002UL, 0x0000000000000064UL, 0x4000000028007c00UL, 0x0000006428007bc4UL,
  0x008000a100000000UL, 0x008021410000005dUL, 0x000000543c007c00UL, 0x040303033c0200e3UL,
  0x10a3440400002211UL, 0x03830000012c0384UL, 0x00000001012b0000UL, 0x000000003c0a7c00UL,
  0x00ffffff3c0c0043UL, 0x0080224100000000UL, 0x080000005c000042UL, 0x5c020123156000fcUL,
  0x00000000000a8000UL, 0x00015f8f00000003UL, 0x0000000000057e3fUL, 0x07c403fd00000000UL,
  0x5c0c004300000001UL, 0x2042204200000000UL, 0x000000015c0b7c00UL, 0xfea132365d000403UL,
  0xfe9e22d8000045d7UL, 0xfe7c3d4000005836UL, 0xfea1693700009382UL, 0xfe9c26360000d190UL,
  0xfebb383e000013fcUL, 0xfe693c600000bdbeUL, 0xfe513c270000585eUL, 0xfeb32cb70000bd8bUL,
  0xfeac52de0000a606UL, 0xfd4f1a3800008a44UL, 0xffda62f900006412UL, 0xfe54319a0000da34UL,
  0xfeb942130000e085UL, 0xfe8c4ac50000f7a9UL, 0xfeaf3b030000cb77UL, 0x0080226100001ebbUL,
  0x0800000060000042UL, 0x60027c0015000060UL, 0x6007004300068000UL, 0x000000042e804d9bUL,
  0x00000000600c0043UL, 0x0080200110411041UL, 0x0008c10014007c00UL, 0x3420000014020043UL,
  0x140500c300041eb0UL, 0x00041eb000000000UL, 0x0000000000000001UL, 0x0010000000000024UL,
  0x00000006140c0042UL, 0x140d004300000007UL, 0x34241eef00000004UL, 0x0000000014110043UL,
  0x0080210100000000UL, 0x0008c18434007c00UL, 0x71127b7034020043UL, 0x340500c3000001b0UL,
  0x0000000000000000UL, 0x0000000000000000UL, 0x0010000000000024UL, 0x00000006340c0042UL,
  0x340d004300000007UL, 0x71127d5f00000001UL, 0x0000000034110043UL, 0x008020c100000008UL,
  0x000801082c007c00UL, 0x342700002c020043UL, 0x2c0500c300015f90UL, 0x00015f9000000000UL,
  0x0000000000000000UL, 0x0010000000000024UL, 0x000000062c0c0042UL, 0x2c0d004300000007UL,
  0x342c7e7f00000004UL, 0x000000002c110043UL, 0x008020a100000000UL, 0x0008010828007c00UL,
  0x342e000028020043UL, 0x280500c300015f90UL, 0x00015f9000000000UL, 0x0000000000000000UL,
  0x0010000000000024UL, 0x00000006280c0042UL, 0x280d004300000007UL, 0x34337e7f00000004UL,
  0x0000000028110043UL, 0x1007004300000000UL, 0x0000002500000027UL, 0x00000001100c0043UL,
  0x101e7c0000000011UL, 0x10207c0000000015UL, 0x10007c0000000025UL, 0x2800200100000001UL,
  0x3c007c002c002001UL, 0x5c00200100000055UL, 0x1400200160002001UL, 0x28007fe434002001UL,
  0x0000000000000064UL, 0x000000642c007fe4UL, 0x10007c0000000000UL, 0x1000042400000002UL,
  0x0000000000000064UL, 0x4000000010007c00UL, 0x0000006410007bc4UL, 0x1007004300000000UL,
  0x0000000000000000UL, 0x00000000100c0043UL, 0x101e7c0000000000UL, 0x10207c0000000000UL,
  0x28007c0000000000UL, 0x2800042400000002UL, 0x0000000000000064UL, 0x4000000028007c00UL,
  0x0000006428007bc4UL, 0x008000a100000000UL, 0x000000022c007c00UL, 0x000000642c000424UL,
  0x2c007c0000000000UL, 0x2c007bc440000000UL, 0x0000000000000064UL, 0x3c007c00008000c1UL,
  0x3c00042400000002UL, 0x0000000000000064UL, 0x400000003c007c00UL, 0x000000643c007bc4UL,
  0x0080014100000000UL, 0x080000025c007c00UL, 0x000000645c000424UL, 0x5c007c0000000000UL,
  0x5c007bc448000000UL, 0x0000000000000064UL, 0x60007c0000800241UL, 0x6000042408000002UL,
  0x0000000000000064UL, 0x4800000060007c00UL, 0x0000006460007bc4UL, 0x0080026100000000UL,
  0x0000000214007c00UL, 0x0000006414000424UL, 0x14007c0000000000UL, 0x14007bc440000000UL,
  0x0000000000000064UL, 0x34007c0000800001UL, 0x3400042400000002UL, 0x0000000000000064UL,
  0x4000000034007c00UL, 0x0000006434007bc4UL, 0x0080010100000000UL, 0x008022810000007dUL,
  0x0800000064000042UL, 0x64027c0009000f60UL, 0x6407004300000000UL, 0x0000000100010001UL,
  0x00000000640c0043UL, 0x008022a110411041UL, 0x0800000068000042UL, 0x68027c0009000160UL,
  0x6807004300038007UL, 0x0000400000004000UL, 0x00000000680c0043UL, 0x0080208110412042UL,
  0x0008010024007c00UL, 0x3427000024020043UL, 0x240500c300015f90UL, 0x00015f9000000000UL,
  0x0000000000000000UL, 0x0010000000000024UL, 0x00000006240c0042UL, 0x240d004300000007UL,
  0x342c7e7f00000004UL, 0x0000000024110043UL, 0x0080210100000000UL, 0x0008010034007c00UL,
  0x342e000034020043UL, 0x340500c300015f90UL, 0x00015f9000000000UL, 0x0000000000000000UL,
  0x0010000000000024UL, 0x00000006340c0042UL, 0x340d004300000007UL, 0x34337e7f00000004UL,
  0x0000000034110043UL, 0x008020a100000000UL, 0x0008010028007c00UL, 0x3427000028020043UL,
  0x280500c300015f90UL, 0x00015f9000000000UL, 0x0000000000000000UL, 0x0010000000000024UL,
  0x00000006280c0042UL, 0x280d004300000007UL, 0x342c7e7f00000004UL, 0x0000000028110043UL,
  0x0080202100000000UL, 0x0088010818007c00UL, 0x3410000018020043UL, 0x180500c300015f90UL,
  0x0002bf2000000000UL, 0x0000000000000000UL, 0x0010000000000024UL, 0x00000006180c0042UL,
  0x180d004300000007UL, 0x341afcbf00000004UL, 0x0000000018110043UL, 0x10037c0000000000UL,
  0x102200830000002bUL, 0x0000001100000009UL, 0x0000000b00000029UL, 0x0000000110007c00UL,
  0x6400200118002001UL, 0x2400200168002001UL, 0x3400200128002001UL, 0x0000006418007fe4UL,
  0x10007c0000000000UL, 0x1000042400000002UL, 0x0000000000000064UL, 0x4000000010007c00UL,
  0x0000006410007bc4UL, 0x10037c0000000000UL, 0x1022008300000000UL, 0x0000000000000000UL,
  0x0000000000000000UL, 0x0000000218007c00UL, 0x0000006418000424UL, 0x18007c0000000000UL,
  0x18007bc440000000UL, 0x0000000000000064UL, 0x64007c0000800021UL, 0x6400042408000002UL,
  0x0000000000000064UL, 0x4800000064007c00UL, 0x0000006464007bc4UL, 0x0080028100000000UL,
  0x0800000268007c00UL, 0x0000006468000424UL, 0x68007c0000000000UL, 0x68007bc448000000UL,
  0x0000000000000064UL, 0x24007c00008002a1UL, 0x2400042400000002UL, 0x0000000000000064UL,
  0x4000000024007c00UL, 0x0000006424007bc4UL, 0x0080008100000000UL, 0x0000000228007c00UL,
  0x0000006428000424UL, 0x28007c0000000000UL, 0x28007bc440000000UL, 0x0000000000000064UL,
  0x34007c00008000a1UL, 0x3400042400000002UL, 0x0000000000000064UL, 0x4000000034007c00UL,
  0x0000006434007bc4UL, 0x0080010100000000UL, 0x008022410000009dUL, 0x080000005c000042UL,
  0x5c027c0005000160UL, 0x5c07004300092804UL, 0x0000611d97246efcUL, 0x000000005c0c0043UL,
  0x0080220110412042UL, 0x0174104c54007c00UL, 0x00087f8054020043UL, 0x550002030210100fUL,
  0x0000000100000000UL, 0x0000000300000002UL, 0x0000000500000004UL, 0x0000000700000006UL,
  0x0000000900000008UL, 0x0000000b0000000aUL, 0x0000000d0000000cUL, 0x000000cf0000000eUL,
  0x40000000560005c3UL, 0x4000000000000000UL, 0x4000000000000000UL, 0x4000000000000000UL,
  0x4000000000000000UL, 0x4000000000000000UL, 0x4000000000000000UL, 0x4000000000000000UL,
  0x4000000000000000UL, 0x4000000000000000UL, 0x4000000000000000UL, 0x4000000000000000UL,
  0x4000000000000000UL, 0x4000000000000000UL, 0x4000000000000000UL, 0x4000000000000000UL,
  0x4000000000000000UL, 0x4000000000000000UL, 0x4000000000000000UL, 0x4000000000000000UL,
  0x4000000000000000UL, 0x4000000000000000UL, 0x4000000000000000UL, 0x0080206100000000UL,
  0x0088010020007c00UL, 0x3410000020020043UL, 0x200500c300015f90UL, 0x0002bf2000000000UL,
  0x0000000000000000UL, 0x0010000000000024UL, 0x00000006200c0042UL, 0x200d004300000007UL,
  0x341afcbf00000004UL, 0x0000000020110043UL, 0x008020a100000000UL, 0x0008010028007c00UL,
  0x342e000028020043UL, 0x280500c300015f90UL, 0x00015f9000000000UL, 0x0000000000000000UL,
  0x0010000000000024UL, 0x00000006280c0042UL, 0x280d004300000007UL, 0x34337e7f00000004UL,
  0x0000000028110043UL, 0x008020e100000000UL, 0x0008000830007c00UL, 0x3427000030020123UL,
  0x0010000400960096UL, 0x0000000400000960UL, 0x00057e4000000004UL, 0x0010000000000024UL,
  0x00000006300c0042UL, 0x300d004300000007UL, 0x342c7e7f00000004UL, 0x0000000030110043UL,
  0x10097c0000000000UL, 0x101c7c0000000021UL, 0x101e004300000025UL, 0x0000000b00000007UL,
  0x0000000110007c00UL, 0x5400200130002001UL, 0x200020015c002001UL, 0x30007fe428002001UL,
  0x0000000000000064UL, 0x0000000210007c00UL, 0x0000006410000424UL, 0x10007c0000000000UL,
  0x10007bc440000000UL, 0x0000000000000064UL, 0x0000000010097c00UL, 0x00000000101c7c00UL,
  0x00000000101e0043UL, 0x30007c0000000000UL, 0x3000042400000002UL, 0x0000000000000064UL,
  0x4000000030007c00UL, 0x0000006430007bc4UL, 0x008000e100000000UL, 0x0088108254007c00UL,
  0x0000006454000424UL, 0x54007c0000000000UL, 0x54007bc440881080UL, 0x0000000000000064UL,
  0x5c007c0000800201UL, 0x5c00042408000002UL, 0x0000000000000064UL, 0x480000005c007c00UL,
  0x000000645c007bc4UL, 0x0080024100000000UL, 0x0000000220007c00UL, 0x0000006420000424UL,
  0x20007c0000000000UL, 0x20007bc440000000UL, 0x0000000000000064UL, 0x28007c0000800061UL,
  0x2800042400000002UL, 0x0000000000000064UL, 0x4000000028007c00UL, 0x0000006428007bc4UL,
  0x008000a100000000UL, 0x00802161000000bdUL, 0x0000005440007c00UL, 0x10100101400200e3UL,
  0x10a3420200001100UL, 0x095f000000960960UL, 0x0000000100950000UL, 0x00000000400a7c00UL,
  0x00ffff8b400c0043UL, 0x0080226100000000UL, 0x0800000060000042UL, 0x60020123156000fcUL,
  0x0000000000098000UL, 0x00057e3f0000000fUL, 0x0000000000057e3fUL, 0x07c403f100000000UL,
  0x600c004300000001UL, 0x2042204200000000UL, 0x00000001600b7c00UL, 0xfc611efc61000403UL,
  0xfba839440000b2acUL, 0xfd67470b00002586UL, 0xfc73095f00002b82UL, 0xfc370fc6000029c3UL,
  0xfc7912e3000044c5UL, 0xfc3d1929000020fbUL, 0xfc4525fb00006d61UL, 0xfc7b0bba0000cd96UL,
  0xfc6421dd0000f10eUL, 0xfc1c094f00008753UL, 0xfb8e1d5c0000fde5UL, 0xfc2f09c20000b187UL,
  0xfbb613040000cb2aUL, 0xfc9437130000c2c7UL, 0xfc5f2ddd000010fcUL, 0x008022810000aa60UL,
  0x0800000064000042UL, 0x64027c0015000000UL, 0x6407004300070000UL, 0x0000002000004000UL,
  0x00000000640c0043UL, 0x008020c110411041UL, 0x0008c1042c007c00UL, 0x342700002c020043UL,
  0x2c0500c300057e40UL, 0x00057e4000000000UL, 0x0000000000000001UL, 0x0010000000000024UL,
  0x000000062c0c0042UL, 0x2c0d004300000007UL, 0x342c7e7f00000001UL, 0x000000002c110043UL,
  0x0080210100000000UL, 0x0008c18434007c00UL, 0x7112868034020043UL, 0x340500c300000100UL,
  0x0000000000000000UL, 0x0000000000000000UL, 0x0010000000000024UL, 0x00000006340c0042UL,
  0x340d004300000007UL, 0x711287bf00000001UL, 0x0000000034110043UL, 0x0080208100000008UL,
  0x0008000824007c00UL, 0x342e000024020123UL, 0x5f90000400960004UL, 0x0000025800000004UL,
  0x00057e4000000096UL, 0x0010000000000024UL, 0x00010006240c0042UL, 0x240d004300010007UL,
  0x34337e7f00000096UL, 0x0000000024110043UL, 0x10067c0000000000UL, 0x100f004300000029UL,
  0x000000110000000dUL, 0x0000001710207c00UL, 0x0000002710227c00UL, 0x0000000110007c00UL,
  0x40007c0024002001UL, 0x6000200100000055UL, 0x2c00200164002001UL, 0x24007fe434002001UL,
  0x0000000000000064UL, 0x0000000210007c00UL, 0x0000006410000424UL, 0x10007c0000000000UL,
  0x10007bc440000000UL, 0x0000000000000064UL, 0x0000000010067c00UL, 0x00000000100f0043UL,
  0x10207c0000000000UL, 0x10227c0000000000UL, 0x24007c0000000000UL, 0x2400042400000002UL,
  0x0000000000000064UL, 0x4000000024007c00UL, 0x0000006424007bc4UL, 0x0080008100000000UL,
  0x0000000240007c00UL, 0x0000006440000424UL, 0x40007c0000000000UL, 0x40007bc440000000UL,
  0x0000000000000064UL, 0x60007c0000800161UL, 0x6000042408000002UL, 0x0000000000000064UL,
  0x4800000060007c00UL, 0x0000006460007bc4UL, 0x0080026100000000UL, 0x0800000264007c00UL,
  0x0000006464000424UL, 0x64007c0000000000UL, 0x64007bc448000000UL, 0x0000000000000064UL,
  0x2c007c0000800281UL, 0x2c00042400000002UL, 0x0000000000000064UL, 0x400000002c007c00UL,
  0x000000642c007bc4UL, 0x008000c100000000UL, 0x0000000234007c00UL, 0x0000006434000424UL,
  0x34007c0000000000UL, 0x34007bc440000000UL, 0x0000000000000064UL, 0x000000dd00800101UL,
  0x44007c0000802181UL, 0x440200e320100034UL, 0x0000220004040303UL, 0x0096025810a34303UL,
  0x0095000002570000UL, 0x440a7c0000000001UL, 0x440d7c0000010004UL, 0x008022a100000000UL,
  0x0800000068000042UL, 0x68020123156000fcUL, 0x0000000000080000UL, 0x000057e300000003UL,
  0x0000000000015f8fUL, 0x07c403fd00000000UL, 0x680c004300000001UL, 0x2042204200000000UL,
  0x00000001680b7c00UL, 0xffb0146769000403UL, 0xffa50deb00007520UL, 0xffae11ca00007badUL,
  0xff91382f0000355eUL, 0xff6822ce00005697UL, 0xff9131970000aabcUL, 0xffa31921000005b1UL,
  0xffa3180e00005627UL, 0xff94322f00000c02UL, 0xffac0f0a0000bb02UL, 0xff79197a0000c9a1UL,
  0xff7e13e20000d152UL, 0xff7251ee0000fd83UL, 0xff8016c20000d6b6UL, 0xffba10080000999dUL,
  0xffaf0b5f000094f3UL, 0x0080224100005b17UL, 0x080000005c000042UL, 0x5c027c0015000000UL,
  0x5c07004300070000UL, 0x0000002000004000UL, 0x000000005c0c0043UL, 0x0080212110411041UL,
  0x0088030038007c00UL, 0x342e000038020043UL, 0x380500c30000afc8UL, 0x0000000000000000UL,
  0x00015f9000000001UL, 0x0010000000000024UL, 0x00000006380c0042UL, 0x380d004300000007UL,
  0x34337e7f00000004UL, 0x0000000038110043UL, 0x0080200100000000UL, 0x0008018414007c00UL,
  0x71126bb014020043UL, 0x140500c300000240UL, 0x0000000000000000UL, 0x0000000000000000UL,
  0x0010000000000024UL, 0x00000006140c0042UL, 0x140d004300000007UL, 0x71126e2f00000001UL,
  0x0000000014110043UL, 0x0080208100000008UL, 0x0008000824007c00UL, 0x34337e4024020123UL,
  0x00100004004b004bUL, 0x00000004000004b0UL, 0x00015f9000000004UL, 0x0010000000000024UL,
  0x00000006240c0042UL, 0x240d004300000007UL, 0x3434de0f00000004UL, 0x0000000024110043UL,
  0x10067c0000000000UL, 0x1012004300000025UL, 0x0000000100000013UL, 0x0000002b101e7c00UL,
  0x0000001910247c00UL, 0x0000000110007c00UL, 0x44007c0024002001UL, 0x5c00200120100035UL,
  0x1400200168002001UL, 0x24007fe438002001UL, 0x0000000000000064UL, 0x0000000210007c00UL,
  0x0000006410000424UL, 0x10007c0000000000UL, 0x10007bc440000000UL, 0x0000000000000064UL,
  0x0000000010067c00UL, 0x0000000010120043UL, 0x101e7c0000000000UL, 0x10247c0000000000UL,
  0x24007c0000000000UL, 0x2400042400000002UL, 0x0000000000000064UL, 0x4000000024007c00UL,
  0x0000006424007bc4UL, 0x0080008100000000UL, 0x0000000244007c00UL, 0x0000006444000424UL,
  0x44007c0000000000UL, 0x44007bc440000000UL, 0x0000000000000064UL, 0x5c007c0000800181UL,
  0x5c00042408000002UL, 0x0000000000000064UL, 0x480000005c007c00UL, 0x000000645c007bc4UL,
  0x0080024100000000UL, 0x0800000268007c00UL, 0x0000006468000424UL, 0x68007c0000000000UL,
  0x68007bc448000000UL, 0x0000000000000064UL, 0x14007c00008002a1UL, 0x1400042400000002UL,
  0x0000000000000064UL, 0x4000000014007c00UL, 0x0000006414007bc4UL, 0x0080000100000000UL,
  0x0000000238007c00UL, 0x0000006438000424UL, 0x38007c0000000000UL, 0x38007bc440000000UL,
  0x0000000000000064UL, 0x000000fd00800121UL, 0x48007c00008021a1UL, 0x480200e300100034UL,
  0x0000110010100101UL, 0x004b04b010634202UL, 0x004a000004af0000UL, 0x480a7c0000000001UL,
  0x480d7c0000000000UL, 0x0080226100000000UL, 0x0800000060000042UL, 0x60020123156000fcUL,
  0x00000000000a0000UL, 0x00015f8f0000000fUL, 0x0000000000015f8fUL, 0x07c403f100000000UL,
  0x600c004300000001UL, 0x2042204200000000UL, 0x00000001600b7c00UL, 0xfdcf3fe961000403UL,
  0xfd294fee0000aa49UL, 0xfd4950b10000a926UL, 0xfd99317100002ac0UL, 0xfd85222a000021f0UL,
  0xfee234eb0000599eUL, 0xfe6a500100003812UL, 0xfdd62ee600002a31UL, 0xff012e2900006591UL,
  0xfb4b36060000fc0fUL, 0xfc7d43cf000056eaUL, 0xfc4c35ef00003ed7UL, 0xfebf35b8000029a7UL,
  0xfc5d2b7d000050a0UL, 0xfc8b292a0000562eUL, 0xfccf264800004be6UL, 0x008020a10000a1b1UL,
  0x0008010428007c00UL, 0x34337e4028020043UL, 0x280500c300015f90UL, 0x00015f9000000000UL,
  0x0000000000000001UL, 0x0010000000000024UL, 0x00000006280c0042UL, 0x280d004300000007UL,
  0x3434de0f00000001UL, 0x0000000028110043UL, 0x008020c100000000UL, 0x000801842c007c00UL,
  0x711287802c020043UL, 0x2c0500c300000100UL, 0x0000000000000000UL, 0x0000000000000000UL,
  0x0010000000000024UL, 0x000000062c0c0042UL, 0x2c0d004300000007UL, 0x711288bf00000001UL,
  0x000000002c110043UL, 0x0080206100000008UL, 0x0008010c20007c00UL, 0x342e000020020043UL,
  0x200500c300015f90UL, 0x00015f9000000000UL, 0x0000000000000000UL, 0x0010000000000024UL,
  0x00000006200c0042UL, 0x200d004300000007UL, 0x342f5fcf00000001UL, 0x0000000020110043UL,
  0x10057c0000000000UL, 0x1015004300000027UL, 0x0000000d0000000bUL, 0x0000001b10207c00UL,
  0x0000000110007c00UL, 0x48007c0020002001UL, 0x6000200100100035UL, 0x2c00200128002001UL,
  0x0000006420007fe4UL, 0x10007c0000000000UL, 0x1000042400000002UL, 0x0000000000000064UL,
  0x4000000010007c00UL, 0x0000006410007bc4UL, 0x10057c0000000000UL, 0x1015004300000000UL,
  0x0000000000000000UL, 0x0000000010207c00UL, 0x0000000220007c00UL, 0x0000006420000424UL,
  0x20007c0000000000UL, 0x20007bc440000000UL, 0x0000000000000064UL, 0x48007c0000800061UL,
  0x4800042400000002UL, 0x0000000000000064UL, 0x4000000048007c00UL, 0x0000006448007bc4UL,
  0x008001a100000000UL, 0x0800000260007c00UL, 0x0000006460000424UL, 0x60007c0000000000UL,
  0x60007bc448000000UL, 0x0000000000000064UL, 0x28007c0000800261UL, 0x2800042400000002UL,
  0x0000000000000064UL, 0x4000000028007c00UL, 0x0000006428007bc4UL, 0x008000a100000000UL,
  0x000000022c007c00UL, 0x000000642c000424UL, 0x2c007c0000000000UL, 0x2c007bc440000000UL,
  0x0000000000000064UL, 0x0000011d008000c1UL, 0x6c007c00008022c1UL, 0x6c0200e30041d3e8UL,
  0x004b025820000440UL, 0x00005d35004c004cUL, 0x004a000002570000UL, 0x0080228100060001UL,
  0x0800000064000042UL, 0x64027c0015000060UL, 0x6407004300060008UL, 0x00000008543b4102UL,
  0x00000000640c0043UL, 0x0080210110412042UL, 0x0008000034007c00UL, 0x342e000034020123UL,
  0x00100008004b004bUL, 0x00000008000004b0UL, 0x00015f9000000002UL, 0x0010000000000024UL,
  0x00000006340c0042UL, 0x340d004300000007UL, 0x342f5fcf00000002UL, 0x0000000034110043UL,
  0x0080208100000000UL, 0x0008010824007c00UL, 0x342f5f9024020043UL, 0x240500c300000008UL,
  0x0000000800000000UL, 0x0000000000000000UL, 0x0010000000000024UL, 0x00000006240c0042UL,
  0x240d004300000007UL, 0x342f5fdf00000002UL, 0x0000000024110043UL, 0x10067c0000000000UL,
  0x10227c0000000029UL, 0x10267c000000002dUL, 0x10007c0000000011UL, 0x2400200100000001UL,
  0x6c00200164002001UL, 0x24007fe434002001UL, 0x0000000000000064UL, 0x0000000210007c00UL,
  0x0000006410000424UL, 0x10007c0000000000UL, 0x10007bc440000000UL, 0x0000000000000064UL,
  0x0000000010067c00UL, 0x0000000010227c00UL, 0x0000000010267c00UL, 0x0000000224007c00UL,
  0x0000006424000424UL, 0x24007c0000000000UL, 0x24007bc440000000UL, 0x0000000000000064UL,
  0x64007c0000800081UL, 0x6400042408000002UL, 0x0000000000000064UL, 0x4800000064007c00UL,
  0x0000006464007bc4UL, 0x0080028100000000UL, 0x004200026c007c00UL, 0x000000646c000424UL,
  0x6c007c0000000000UL, 0x6c007bc440420000UL, 0x0000000000000064UL, 0x34007c00008002c1UL,
  0x3400042400000002UL, 0x0000000000000064UL, 0x4000000034007c00UL, 0x0000006434007bc4UL,
  0x0080010100000000UL, 0x008021410000013dUL, 0x000000543c007c00UL, 0x041001013c0200e3UL,
  0x10a3420200001100UL, 0xffff000000010010UL, 0x00000001ffff0000UL, 0x000000003c0a7c00UL,
  0x00fffff33c0c0043UL, 0x0080224100000000UL, 0x080000005c000042UL, 0x5c020123156000fcUL,
  0x0000000000098000UL, 0x0000000300000003UL, 0x0000000000000003UL, 0x07f403fd00000000UL,
  0x5c0c004300000001UL, 0x2042204200000000UL, 0x000000015c0b7c00UL, 0xffcb49895d000103UL,
  0xfb8b593e0000e9adUL, 0xfebb4424000090a0UL, 0xfdab4d4f00005ee5UL, 0x008022a10000eca1UL,
  0x0800000068000042UL, 0x68027c0015000000UL, 0x6807004300070000UL, 0x0000002000004000UL,
  0x00000000680c0043UL, 0x0080216110411041UL, 0x0010003440007c00UL, 0x10040101400200e3UL,
  0x1063410100001100UL, 0xffff000000010004UL, 0x00000001ffff0000UL, 0x00000000400a7c00UL,
  0x00000000400d7c00UL, 0x6000004200802261UL, 0x156000fc08000000UL, 0x000a000060020123UL,
  0x0000000f00000000UL, 0x0000000f0000000fUL, 0x0000000000000000UL, 0x0000000107c403f1UL,
  0x00000000600c0043UL, 0x600b7c0020422042UL, 0x6100040300000001UL, 0x0000213ffbd545e2UL,
  0x0000929c03cd1e3fUL, 0x0000b37f028e34a1UL, 0x00008ea300e615a7UL, 0x000049ff02450fbeUL,
  0x0000895c0190130dUL, 0x00007b0e021c10f0UL, 0x00002f1305053198UL, 0x0000ec330529197aUL,
  0x000077570255198aUL, 0x00000a5b02b31ea2UL, 0x0000609f040b27c9UL, 0x000018cd025a1250UL,
  0x00008e2303b52a70UL, 0x00008b33fed31906UL, 0x00002aaff9954167UL, 0x6400004200802281UL,
  0x1500006008000000UL, 0x0007800064027c00UL, 0xd93667e964070043UL, 0x640c00430000000bUL,
  0x1041104100000000UL, 0x58007c0000802221UL, 0x580200430174104cUL, 0x0210100f00087f80UL,
  0x0000000059000203UL, 0x0000000200000001UL, 0x0000000400000003UL, 0x0000000600000005UL,
  0x0000000800000007UL, 0x0000000a00000009UL, 0x0000000c0000000bUL, 0x0000000e0000000dUL,
  0x5a0005c3000000cfUL, 0x0000000040000000UL, 0x0000000040000000UL, 0x0000000040000000UL,
  0x0000000040000000UL, 0x0000000040000000UL, 0x0000000040000000UL, 0x0000000040000000UL,
  0x0000000040000000UL, 0x0000000040000000UL, 0x0000000040000000UL, 0x0000000040000000UL,
  0x0000000040000000UL, 0x0000000040000000UL, 0x0000000040000000UL, 0x0000000040000000UL,
  0x0000000040000000UL, 0x0000000040000000UL, 0x0000000040000000UL, 0x0000000040000000UL,
  0x0000000040000000UL, 0x0000000040000000UL, 0x0000000040000000UL, 0x0000000040000000UL,
  0x20007c0000802061UL, 0x200200430008c104UL, 0x00000010342f5f90UL, 0x00000000200500c3UL,
  0x0000000100000010UL, 0x0000002400000000UL, 0x200c004200100000UL, 0x0000000700000006UL,
  0x00000001200d0043UL, 0x20110043342f5fdfUL, 0x0000000000000000UL, 0x1c007c0000802041UL,
  0x1c0200430008c184UL, 0x0000004071128880UL, 0x000000001c0500c3UL, 0x0000000000000000UL,
  0x0000002400000000UL, 0x1c0c004200100000UL, 0x0000000700000006UL, 0x000000011c0d0043UL,
  0x1c110043711288ffUL, 0x0000000800000000UL, 0x38007c0000802121UL, 0x3802004300080184UL,
  0x00000040711288c0UL, 0x00000000380500c3UL, 0x0000000000000000UL, 0x0000002400000000UL,
  0x380c004200100000UL, 0x0000000700000006UL, 0x00000001380d0043UL, 0x381100437112893fUL,
  0x0000000800000000UL, 0x30007c00008020e1UL, 0x300200430008010cUL, 0x00000010342f5fa0UL,
  0x00000000300500c3UL, 0x0000000000000010UL, 0x0000002400000000UL, 0x300c004200100000UL,
  0x0000000700000006UL, 0x00000001300d0043UL, 0x30110043342f5fefUL, 0x0000000000000000UL,
  0x0000002310097c00UL, 0x00000007100c0043UL, 0x100f004300000005UL, 0x00000013ff2a012bUL,
  0x00000029101d0043UL, 0x10207c0000000015UL, 0x10227c0000000017UL, 0x10247c0000000027UL,
  0x10007c0000000025UL, 0x3000200100000001UL, 0x000000553c007c00UL, 0x0010003540007c00UL,
  0x5c00200158002001UL, 0x6400200160002001UL, 0x1c00200168002001UL, 0x3800200120002001UL,
  0x0000006430007fe4UL, 0x10007c0000000000UL, 0x1000042400000002UL, 0x0000000000000064UL,
  0x4000000010007c00UL, 0x0000006410007bc4UL, 0x10097c0000000000UL, 0x100c004300000000UL,
  0x0000000000000000UL, 0x00000000100f0043UL, 0x101d004300000000UL, 0x0000000000000000UL,
  0x0000000010207c00UL, 0x0000000010227c00UL, 0x0000000010247c00UL, 0x0000000230007c00UL,
  0x0000006430000424UL, 0x30007c0000000000UL, 0x30007bc440000000UL, 0x0000000000000064UL,
  0x3c007c00008000e1UL, 0x3c00042400000002UL, 0x0000000000000064UL, 0x400000003c007c00UL,
  0x000000643c007bc4UL, 0x0080014100000000UL, 0x0000000240007c00UL, 0x0000006440000424UL,
  0x40007c0000000000UL, 0x40007bc440000000UL, 0x0000000000000064UL, 0x58007c0000800161UL,
  0x5800042400881082UL, 0x0000000000000064UL, 0x4088108058007c00UL, 0x0000006458007bc4UL,
  0x0080022100000000UL, 0x080000025c007c00UL, 0x000000645c000424UL, 0x5c007c0000000000UL,
  0x5c007bc448000000UL, 0x0000000000000064UL, 0x60007c0000800241UL, 0x6000042408000002UL,
  0x0000000000000064UL, 0x4800000060007c00UL, 0x0000006460007bc4UL, 0x0080026100000000UL,
  0x0800000264007c00UL, 0x0000006464000424UL, 0x64007c0000000000UL, 0x64007bc448000000UL,
  0x0000000000000064UL, 0x68007c0000800281UL, 0x6800042408000002UL, 0x0000000000000064UL,
  0x4800000068007c00UL, 0x0000006468007bc4UL, 0x008002a100000000UL, 0x000000021c007c00UL,
  0x000000641c000424UL, 0x1c007c0000000000UL, 0x1c007bc440000000UL, 0x0000000000000064UL,
  0x20007c0000800041UL, 0x2000042400000002UL, 0x0000000000000064UL, 0x4000000020007c00UL,
  0x0000006420007bc4UL, 0x0080006100000000UL, 0x0000000238007c00UL, 0x0000006438000424UL,
  0x38007c0000000000UL, 0x38007bc440000000UL, 0x0000000000000064UL, 0x0000015d00800121UL,
  0x5c00004200802241UL, 0x09000f6008000000UL, 0x000000005c027c00UL, 0x000100015c070043UL,
  0x5c0c004300000001UL, 0x1041104100000000UL, 0x6000004200802261UL, 0x0900016008000000UL,
  0x0003800760027c00UL, 0x0000400060070043UL, 0x600c004300004000UL, 0x1041204200000000UL,
  0x6400004200802281UL, 0x0500016008000000UL, 0x0008000664027c00UL, 0x59ab730664070043UL,
  0x640c0043000040b3UL, 0x1041204200000000UL, 0x24007c0000802081UL, 0x2402004300080104UL,
  0x00015f90342e0000UL, 0x00000000240500c3UL, 0x0000000000015f90UL, 0x0000002400000000UL,
  0x240c004200100000UL, 0x0000000700000006UL, 0x00000001240d0043UL, 0x24110043342f5fcfUL,
  0x0000000000000000UL, 0x18007c0000802021UL, 0x1802004300080100UL, 0x00000010342f5fa0UL,
  0x00000000180500c3UL, 0x000015f900000000UL, 0x0000002400000010UL, 0x180c004200100000UL,
  0x0000000700000006UL, 0x000015f9180d0043UL, 0x18110043342f5fefUL, 0x0000000000000000UL,
  0x30007c00008020e1UL, 0x3002004300080104UL, 0x00015f90342e0000UL, 0x00000000300500c3UL,
  0x0000000000015f90UL, 0x0000002400000000UL, 0x300c004200100000UL, 0x0000000700000006UL,
  0x00000001300d0043UL, 0x30110043342f5fcfUL, 0x0000000000000000UL, 0x20007c0000802061UL,
  0x2002004300080100UL, 0x00000010342f5fa0UL, 0x00000000200500c3UL, 0x000015f900000000UL,
  0x0000002400000010UL, 0x200c004200100000UL, 0x0000000700000006UL, 0x000015f9200d0043UL,
  0x20110043342f5fefUL, 0x0000000000000000UL, 0x28007c00008020a1UL, 0x280200430008010cUL,
  0x00015f9034270000UL, 0x00000000280500c3UL, 0x0000000000015f90UL, 0x0000002400000000UL,
  0x280c004200100000UL, 0x0000000700000006UL, 0x00000001280d0043UL, 0x2811004334285fcfUL,
  0x0000000000000000UL, 0x0000002910077c00UL, 0x00000009101e00c3UL, 0x0000002500000003UL,
  0x000000270000000fUL, 0x10007c0000000007UL, 0x2800200100000001UL, 0x600020015c002001UL,
  0x1800200164002001UL, 0x2400200120002001UL, 0x28007fe430002001UL, 0x0000000000000064UL,
  0x0000000210007c00UL, 0x0000006410000424UL, 0x10007c0000000000UL, 0x10007bc440000000UL,
  0x0000000000000064UL, 0x0000000010077c00UL, 0x00000000101e00c3UL, 0x0000000000000000UL,
  0x0000000000000000UL, 0x28007c0000000000UL, 0x2800042400000002UL, 0x0000000000000064UL,
  0x4000000028007c00UL, 0x0000006428007bc4UL, 0x008000a100000000UL, 0x080000025c007c00UL,
  0x000000645c000424UL, 0x5c007c0000000000UL, 0x5c007bc448000000UL, 0x0000000000000064UL,
  0x60007c0000800241UL, 0x6000042408000002UL, 0x0000000000000064UL, 0x4800000060007c00UL,
  0x0000006460007bc4UL, 0x0080026100000000UL, 0x0800000264007c00UL, 0x0000006464000424UL,
  0x64007c0000000000UL, 0x64007bc448000000UL, 0x0000000000000064UL, 0x18007c0000800281UL,
  0x1800042400000002UL, 0x0000000000000064UL, 0x4000000018007c00UL, 0x0000006418007bc4UL,
  0x0080002100000000UL, 0x0000000220007c00UL, 0x0000006420000424UL, 0x20007c0000000000UL,
  0x20007bc440000000UL, 0x0000000000000064UL, 0x24007c0000800061UL, 0x2400042400000002UL,
  0x0000000000000064UL, 0x4000000024007c00UL, 0x0000006424007bc4UL, 0x0080008100000000UL,
  0x0000000230007c00UL, 0x0000006430000424UL, 0x30007c0000000000UL, 0x30007bc440000000UL,
  0x0000000000000064UL, 0x0000017d008000e1UL, 0x44007c0000802181UL, 0x440200e300000054UL,
  0x0000110018100101UL, 0x004b04b010a34303UL, 0x004a000004af0000UL, 0x440a7c0000000001UL,
  0x440c004300000000UL, 0x0000000000ffffe0UL, 0x68000042008022a1UL, 0x156000fc08000000UL,
  0x0009000068020123UL, 0x0000001700000000UL, 0x00062e0700020f57UL, 0x0000000000000000UL,
  0x0000000106e403e9UL, 0x00000000680c0043UL, 0x680b7c0020422042UL, 0x6900120300000001UL,
  0x000031ebfe4417ecUL, 0x00001d27fe181a3aUL, 0x0000152efdfd2aadUL, 0x00008dcffe4f0b2aUL,
  0x000029c9fdff0005UL, 0x0000fd2ffdf228ffUL, 0x0000c1c4fe3c0c5aUL, 0x0000ca58fe122d54UL,
  0x0000edfdfdff0000UL, 0x0000acfffe0c2783UL, 0x0000e9e2fe13146fUL, 0x00005a92fe3917c2UL,
  0x0000c1cdfdcc24cfUL, 0x0000f460fe271bc7UL, 0x0000036cfe261c9fUL, 0x0000afdefe390da8UL,
  0x000094e9fe1914d5UL, 0x00008af3fe232c40UL, 0x000013c2fe0f2321UL, 0x0000d001fe3419f5UL,
  0x0000c6fffe262096UL, 0x00007170fe121d82UL, 0x0000bae8fdc8218fUL, 0x00002870fe552592UL,
  0x0000c579fd9d2c4dUL, 0x00003a15fe0f3238UL, 0x00006063fdee2848UL, 0x0000f018fdff0000UL,
  0x00003c21fe001c4cUL, 0x0000802cfdf44059UL, 0x000070f3fe470cdcUL, 0x00006637fe400943UL,
  0x0000dd13fe35179aUL, 0x000077d7fe1321d9UL, 0x0000d2e5fe432227UL, 0x00009497fdf32e3fUL,
  0x00001361fe35152bUL, 0x0000710cfe032b3eUL, 0x0000e353fdeb205bUL, 0x00003102fdf93678UL,
  0x0000687bfe1320d3UL, 0x000090f1fdc22254UL, 0x00007e1efe1717a5UL, 0x00001e98fe282056UL,
  0x0000baa8fdff0000UL, 0x00008a57fe16295dUL, 0x00001b8cfe560c26UL, 0x00005967fe3b0fd4UL,
  0x00000c56fe251955UL, 0x00000ecafdea2714UL, 0x0000f577fdf52139UL, 0x00002f64fe41093cUL,
  0x000086c1fe1c0e3bUL, 0x00008cb4fde12ec9UL, 0x0000cec4fe4a064eUL, 0x00009117fe0f4444UL,
  0x00008882fe10207fUL, 0x000080bcfe5f115fUL, 0x000019c2fe3008efUL, 0x0000165dfe1d138fUL,
  0x0000251ffe351189UL, 0x00002245fe331f0cUL, 0x00007829fddb1fb3UL, 0x0000e72dfdf71633UL,
  0x0000e88efdff0000UL, 0x0000ebc8fdff0000UL, 0x00009079fe2411cbUL, 0x000081a0fe202452UL,
  0x0000dca2fdf420aeUL, 0x0000b1a3fdff0003UL, 0x0000b764fe1d14fbUL, 0x0000a0f7fde81e38UL,
  0x5c00004200802241UL, 0x1500000008000000UL, 0x000700005c027c00UL, 0x000040005c070043UL,
  0x5c0c004300000020UL, 0x1041104100000000UL, 0x14007c0000802001UL, 0x140200430008c100UL,
  0x00015f9034270000UL, 0x00000000140500c3UL, 0x0000000100015f90UL, 0x0000002400000000UL,
  0x140c004200100000UL, 0x0000000700000006UL, 0x00000003140d0043UL, 0x1411004334285fcfUL,
  0x0000000000000000UL, 0x20007c0000802061UL, 0x200200430008c184UL, 0x00000480711252f0UL,
  0x00000000200500c3UL, 0x0000000000000000UL, 0x0000002400000000UL, 0x200c004200100000UL,
  0x0000000700000006UL, 0x00000001200d0043UL, 0x20110043711257afUL, 0x0000000800000000UL,
  0x28007c00008020a1UL, 0x2802012300080008UL, 0x004b004b342e0000UL, 0x0000151800480018UL,
  0x0000000300000018UL, 0x0000002400062e08UL, 0x280c004200100000UL, 0x0000000700000006UL,
  0x00000003280d0043UL, 0x2811004334342e47UL, 0x0000000000000000UL, 0x0000002510077c00UL,
  0x0000000110120043UL, 0x101e7c0000000007UL, 0x10247c000000002bUL, 0x10007c0000000019UL,
  0x2800200100000001UL, 0x0000005544007c00UL, 0x680020015c002001UL, 0x2000200114002001UL,
  0x0000006428007fe4UL, 0x10007c0000000000UL, 0x1000042400000002UL, 0x0000000000000064UL,
  0x4000000010007c00UL, 0x0000006410007bc4UL, 0x10077c0000000000UL, 0x1012004300000000UL,
  0x0000000000000000UL, 0x00000000101e7c00UL, 0x0000000010247c00UL, 0x0000000228007c00UL,
  0x0000006428000424UL, 0x28007c0000000000UL, 0x28007bc440000000UL, 0x0000000000000064UL,
  0x44007c00008000a1UL, 0x4400042400000002UL, 0x0000000000000064UL, 0x4000000044007c00UL,
  0x0000006444007bc4UL, 0x0080018100000000UL, 0x080000025c007c00UL, 0x000000645c000424UL,
  0x5c007c0000000000UL, 0x5c007bc448000000UL, 0x0000000000000064UL, 0x68007c0000800241UL,
  0x6800042408000002UL, 0x0000000000000064UL, 0x4800000068007c00UL, 0x0000006468007bc4UL,
  0x008002a100000000UL, 0x0000000214007c00UL, 0x0000006414000424UL, 0x14007c0000000000UL,
  0x14007bc440000000UL, 0x0000000000000064UL, 0x20007c0000800001UL, 0x2000042400000002UL,
  0x0000000000000064UL, 0x4000000020007c00UL, 0x0000006420007bc4UL, 0x0080006100000000UL,
  0x008021a10000019dUL, 0x2010003448007c00UL, 0x04040303480200e3UL, 0x1063430300002200UL,
  0x012b0000004b012cUL, 0x00000001004a0000UL, 0x01010404480a7c00UL, 0x00000000480d7c00UL,
  0x6000004200802261UL, 0x156000fc08000000UL, 0x0008000060020123UL, 0x0000000300000000UL,
  0x0001961f0000168fUL, 0x0000000000000000UL, 0x0000000106e403fdUL, 0x00000000600c0043UL,
  0x600b7c0020422042UL, 0x6100120300000001UL, 0x00001a09ff801725UL, 0x0000f44bff7e1789UL,
  0x00009652ff7e18bbUL, 0x0000ffb9ff712ba5UL, 0x0000444dff80000dUL, 0x0000bf06ff9b0dd0UL,
  0x0000f70bff7e2c29UL, 0x0000679bff800987UL, 0x00000021ff800000UL, 0x000089ebff801a45UL,
  0x00007eb2ff771a1dUL, 0x0000b8d8ff84257cUL, 0x000015b4ff81073dUL, 0x0000481cff74289cUL,
  0x0000aff6ff7d19e2UL, 0x0000c99fff8d375eUL, 0x0000ec3fff7c1dbaUL, 0x0000c6c4ff81130cUL,
  0x0000e8c1ff7e1e9aUL, 0x00004223ff811984UL, 0x0000743dff7a1b1cUL, 0x0000edafff7e1fceUL,
  0x00007c23ff9c0e35UL, 0x000041a2ffb307c3UL, 0x00001564ff8106cfUL, 0x00002b97ff7f0deeUL,
  0x00009086ff7e204eUL, 0x0000ffa5ff7f0000UL, 0x0000e75eff811b75UL, 0x00005e2bff930d93UL,
  0x00002ab5ff7a27f4UL, 0x00002c6cff7b60e8UL, 0x000082aeff7f1b19UL, 0x00005b86ff811cf6UL,
  0x0000dbfcff7a1e6eUL, 0x00000f02ff7d0b6eUL, 0x0000e1aeff7c13e5UL, 0x00002d4fff9012fcUL,
  0x000051f0ff900a0bUL, 0x00004307ff7f14b6UL, 0x00003592ff7d0900UL, 0x00003411ffa3094aUL,
  0x000043d0ff7d1b98UL, 0x000089d5ff7f1e7fUL, 0x0000fc8aff7f0001UL, 0x00005a4eff710ed8UL,
  0x0000c2a9ffd70e2dUL, 0x00001e66ff854333UL, 0x00008f22ff7812e2UL, 0x0000b3aeff810b23UL,
  0x0000139bff820a1aUL, 0x0000bdbfff793da0UL, 0x00005bafff7526a5UL, 0x0000b676ff7e0c9dUL,
  0x00003002ff7e671cUL, 0x00003d6dff7f0be2UL, 0x00008b4cff7b1ad7UL, 0x0000b869ff852f6eUL,
  0x0000892bff7a1fb4UL, 0x00000dcbff7e174fUL, 0x0000a42eff7e259aUL, 0x000049c1ff7f238fUL,
  0x0000c8faff8011ddUL, 0x00007dbcff7a0b0dUL, 0x0000ff35ff7f0000UL, 0x0000ff46ff7f0000UL,
  0x000057e8ff7414ecUL, 0x00000915ff7d2fceUL, 0x00000736ff970a9fUL, 0x00001210ff800001UL,
  0x0000f872ff7d1717UL, 0x00002b2cff8217a0UL, 0x6400004200802281UL, 0x1500000008000000UL,
  0x0007000064027c00UL, 0x0000400064070043UL, 0x640c004300000020UL, 0x1041104100000000UL,
  0x2c007c00008020c1UL, 0x2c02012300880200UL, 0x004b004b342e0000UL, 0x0000151800480002UL,
  0x0000000100000000UL, 0x0000002400000004UL, 0x2c0c004200100000UL, 0x0000000700000006UL,
  0x000000122c0d0043UL, 0x2c11004334342e47UL, 0x0000000000000000UL, 0x1c007c0000802041UL,
  0x1c02004300080184UL, 0x00000a2071118160UL, 0x000000001c0500c3UL, 0x0000000000000000UL,
  0x0000002400000000UL, 0x1c0c004200100000UL, 0x0000000700000006UL, 0x000000011c0d0043UL,
  0x1c11004371118bbfUL, 0x0000000800000000UL, 0x20007c0000802061UL, 0x2002012300080008UL,
  0x0026002634270000UL, 0x00000ab000480004UL, 0x0000001200000004UL, 0x0000002400019620UL,
  0x200c004200100000UL, 0x0000000700000006UL, 0x00000012200d0043UL, 0x201100433428965fUL,
  0x0000000000000000UL, 0x0000002910057c00UL, 0x0000000d10150043UL, 0x10207c0000000005UL,
  0x10227c000000001bUL, 0x10007c0000000027UL, 0x2000200100000001UL, 0x2010003548007c00UL,
  0x6400200160002001UL, 0x2c0020011c002001UL, 0x0000006420007fe4UL, 0x10007c0000000000UL,
  0x1000042400000002UL, 0x0000000000000064UL, 0x4000000010007c00UL, 0x0000006410007bc4UL,
  0x10057c0000000000UL, 0x1015004300000000UL, 0x0000000000000000UL, 0x0000000010207c00UL,
  0x0000000010227c00UL, 0x0000000220007c00UL, 0x0000006420000424UL, 0x20007c0000000000UL,
  0x20007bc440000000UL, 0x0000000000000064UL, 0x48007c0000800061UL, 0x4800042400000002UL,
  0x0000000000000064UL, 0x4000000048007c00UL, 0x0000006448007bc4UL, 0x008001a100000000UL,
  0x0800000260007c00UL, 0x0000006460000424UL, 0x60007c0000000000UL, 0x60007bc448000000UL,
  0x0000000000000064UL, 0x64007c0000800261UL, 0x6400042408000002UL, 0x0000000000000064UL,
  0x4800000064007c00UL, 0x0000006464007bc4UL, 0x0080028100000000UL, 0x000000021c007c00UL,
  0x000000641c000424UL, 0x1c007c0000000000UL, 0x1c007bc440000000UL, 0x0000000000000064UL,
  0x2c007c0000800041UL, 0x2c00042400000002UL, 0x0000000000000064UL, 0x400000002c007c00UL,
  0x000000642c007bc4UL, 0x008000c100000000UL, 0x00802141000001bdUL, 0x10d000343c007c00UL,
  0x184801013c0200e3UL, 0x10e3440400001100UL, 0x0aaf000000260ab0UL, 0x0000000100250000UL,
  0x000000003c0a7c00UL, 0x000000003c0d7c00UL, 0x5c00004200802241UL, 0x156000fc08000000UL,
  0x000900005c020123UL, 0x0000001700000000UL, 0x0000875f0000875fUL, 0x0000000000000000UL,
  0x0000000107a403e9UL, 0x000000005c0c0043UL, 0x5c0b7c0020422042UL, 0x5d00060300000001UL,
  0x0000d08afffc35fdUL, 0x0000eadc0012432fUL, 0x0000062dffc82ef7UL, 0x000022f700023460UL,
  0x0000c0b50054292aUL, 0x0000b798ffe63044UL, 0x00008ad1fffe2975UL, 0x0000dcc0ffe02380UL,
  0x0000946300352bd5UL, 0x0000d646ffda4833UL, 0x0000926afff02484UL, 0x0000fb93003c41c1UL,
  0x000064b600582a62UL, 0x00007ea8fff624f2UL, 0x00004c0200072806UL, 0x0000cd58003e2863UL,
  0x00007b9d002b5c38UL, 0x00000025002f29f5UL, 0x0000d5d3003e2eedUL, 0x000075e3fffb24bdUL,
  0x00004277002128f5UL, 0x00000ad100553f07UL, 0x00002da8005127f1UL, 0x0000e4f100432692UL,
  0x30007c00008020e1UL, 0x3002004308880304UL, 0x0000876034270000UL, 0x00000000300500c3UL,
  0x0000000100000000UL, 0x0000002400019620UL, 0x300c004200100000UL, 0x0000000700000006UL,
  0x00000001300d0043UL, 0x301100433428965fUL, 0x0000000000000000UL, 0x20007c0000802061UL,
  0x2002004308880184UL, 0x00000240711228c0UL, 0x00000000200500c3UL, 0x0000000000000000UL,
  0x0000002400000000UL, 0x200c004200100000UL, 0x0000000700000006UL, 0x00000001200d0043UL,
  0x2011004371122fbfUL, 0x0000000800000000UL, 0x14007c0000802001UL, 0x140200430008010cUL,
  0x000087603431e0c0UL, 0x00000000140500c3UL, 0x0000000000008760UL, 0x0000002400000000UL,
  0x140c004200100000UL, 0x0000000700000006UL, 0x00000001140d0043UL, 0x141100433432685fUL,
  0x0000000000000000UL, 0x0000002510027c00UL, 0x0000000f100c0043UL, 0x101e7c0000000007UL,
  0x10007c0000000015UL, 0x1400200100000001UL, 0x10d000353c007c00UL, 0x200020015c002001UL,
  0x14007fe430002001UL, 0x0000000000000064UL, 0x0000000210007c00UL, 0x0000006410000424UL,
  0x10007c0000000000UL, 0x10007bc440000000UL, 0x0000000000000064UL, 0x0000000010027c00UL,
  0x00000000100c0043UL, 0x101e7c0000000000UL, 0x14007c0000000000UL, 0x1400042400000002UL,
  0x0000000000000064UL, 0x4000000014007c00UL, 0x0000006414007bc4UL, 0x0080000100000000UL,
  0x000000023c007c00UL, 0x000000643c000424UL, 0x3c007c0000000000UL, 0x3c007bc440000000UL,
  0x0000000000000064UL, 0x5c007c0000800141UL, 0x5c00042408000002UL, 0x0000000000000064UL,
  0x480000005c007c00UL, 0x000000645c007bc4UL, 0x0080024100000000UL, 0x0000000220007c00UL,
  0x0000006420000424UL, 0x20007c0000000000UL, 0x20007bc440000000UL, 0x0000000000000064UL,
  0x30007c0000800061UL, 0x3000042400000002UL, 0x0000000000000064UL, 0x4000000030007c00UL,
  0x0000006430007bc4UL, 0x008000e100000000UL, 0x00802161000001ddUL, 0x0000005440007c00UL,
  0x16180101400200e3UL, 0x10a3430300001100UL, 0x038f000000260390UL, 0x0000000100250000UL,
  0x00000000400a7c00UL, 0x00000005400c0043UL, 0x008022a100000000UL, 0x0800000068000042UL,
  0x68020123156000fcUL, 0x0000000000098000UL, 0x00007c1700000015UL, 0x000000000001f05fUL,
  0x06a403eb00000000UL, 0x680c004300000001UL, 0x2042204200000000UL, 0x00000001680b7c00UL,
  0xfc341ec069001603UL, 0xfc4a150600009be6UL, 0xfc9f1cc000009f42UL, 0xfbe2258f00001f21UL,
  0xfc7b3a5600009ed1UL, 0xfc6b1ae70000f735UL, 0xfbff00010000da82UL, 0xfcbd14fa0000d06fUL,
  0xfbf736cc00002d01UL, 0xfc7012e100009264UL, 0xfbff000100005b28UL, 0xfc2e29180000c0b6UL,
  0xfc973e2e00007e21UL, 0xfc6842350000f63bUL, 0xfcdf1faa000049bfUL, 0xfbfe000300001459UL,
  0xfc47244b00007496UL, 0xfc72366600002ac3UL, 0xfc4b288e000006e0UL, 0xfc5d3c4e00008b21UL,
  0xfbad12240000a366UL, 0xfc2f374b0000fa64UL, 0xfbff00070000b518UL, 0xfb9253a60000504eUL,
  0xfc623efe0000b31bUL, 0xfc962fd100000633UL, 0xfc01375900009dbcUL, 0xfc4734710000e44bUL,
  0xfbf24bb900007139UL, 0xfc4e1a840000f2a7UL, 0xfba9302700000306UL, 0xfcb820a000009141UL,
  0xfbf43be6000073f1UL, 0xfbfe44e700004587UL, 0xfc2835e70000b8b5UL, 0xfc982ecb0000f3b4UL,
  0xfc2e1e6700007723UL, 0xfc2524610000da18UL, 0xfc723cef0000444cUL, 0xfc7b314e00008465UL,
  0xfc4536d60000dd50UL, 0xfbdf43490000ab4bUL, 0xfbd43ece0000ef2aUL, 0xfc4524640000e9e8UL,
  0xfc551c75000031cfUL, 0xfbc07a3e0000b16bUL, 0xfbf701480000f832UL, 0xfc642d0b00000901UL,
  0xfbf438fb0000d1ebUL, 0xfc92232e000025ccUL, 0xfc5124df00004a7fUL, 0xfbff00030000fc66UL,
  0xfb8a5e4000002fe6UL, 0xfc0a3be00000a5ffUL, 0xfc3e275f00005964UL, 0xfc4f229000005c3fUL,
  0xfbfe00110000a6cbUL, 0xfc44234e000071a7UL, 0xfbfe001d0000da14UL, 0xfc8936920000d739UL,
  0xfc81255800006f15UL, 0xfbf900ab0000986dUL, 0xfbfd4de10000f783UL, 0xfca029e30000ae2eUL,
  0xfc0135ec0000c27cUL, 0xfc442f490000a1e3UL, 0xfc25293b0000f15aUL, 0xfbe33ae900005827UL,
  0xfc7329280000c819UL, 0xfc6410ae00000202UL, 0xfc3d26640000a7bdUL, 0xfc762d8700009d9fUL,
  0xfbfe33db00009e62UL, 0xfbf801de0000bbe6UL, 0xfbe52b5400000f94UL, 0xfbc32f6300002c46UL,
  0xfc05348200005affUL, 0xfbff00080000d1f6UL, 0xfc173e270000444bUL, 0xfc7c2f20000094a7UL,
  0xfb865e8e00002f42UL, 0xfc8b1fdc00007027UL, 0xfbdf372e0000788aUL, 0xfc2a38240000c6e6UL,
  0xfc3e53ca00008b4cUL, 0xfbb61f440000ade7UL, 0xfc584c920000e7dcUL, 0xfbff000100009226UL,
  0x008022610000c099UL, 0x0800000060000042UL, 0x60027c0015000000UL, 0x6007004300070000UL,
  0x0000002000004000UL, 0x00000000600c0043UL, 0x0080208110411041UL, 0x0008c10024007c00UL,
  0x3431e0c024020043UL, 0x240500c300008760UL, 0x0000876000000000UL, 0x0000000000000001UL,
  0x0010000000000024UL, 0x00000006240c0042UL, 0x240d004300000007UL, 0x3432685f00000004UL,
  0x0000000024110043UL, 0x008020e100000000UL, 0x0008c18430007c00UL, 0x711209b030020043UL,
  0x300500c300000840UL, 0x0000000000000000UL, 0x0000000000000000UL, 0x0010000000000024UL,
  0x00000006300c0042UL, 0x300d004300000007UL, 0x7112122f00000001UL, 0x0000000030110043UL,
  0x008020a100000008UL, 0x0008000828007c00UL, 0x342e000028020123UL, 0x0058001600260026UL,
  0x0000001600000d10UL, 0x0001f06000000004UL, 0x0010000000000024UL, 0x00000006280c0042UL,
  0x280d004300000007UL, 0x342ff09f00000004UL, 0x0000000028110043UL, 0x10077c0000000000UL,
  0x100f004300000027UL, 0x0000000f00000009UL, 0x0000002b10207c00UL, 0x0000001710247c00UL,
  0x0000000110007c00UL, 0x40007c0028002001UL, 0x6000200100000055UL, 0x2400200168002001UL,
  0x28007fe430002001UL, 0x0000000000000064UL, 0x0000000210007c00UL, 0x0000006410000424UL,
  0x10007c0000000000UL, 0x10007bc440000000UL, 0x0000000000000064UL, 0x0000000010077c00UL,
  0x00000000100f0043UL, 0x10207c0000000000UL, 0x10247c0000000000UL, 0x28007c0000000000UL,
  0x2800042400000002UL, 0x0000000000000064UL, 0x4000000028007c00UL, 0x0000006428007bc4UL,
  0x008000a100000000UL, 0x0000000240007c00UL, 0x0000006440000424UL, 0x40007c0000000000UL,
  0x40007bc440000000UL, 0x0000000000000064UL, 0x60007c0000800161UL, 0x6000042408000002UL,
  0x0000000000000064UL, 0x4800000060007c00UL, 0x0000006460007bc4UL, 0x0080026100000000UL,
  0x0800000268007c00UL, 0x0000006468000424UL, 0x68007c0000000000UL, 0x68007bc448000000UL,
  0x0000000000000064UL, 0x24007c00008002a1UL, 0x2400042400000002UL, 0x0000000000000064UL,
  0x4000000024007c00UL, 0x0000006424007bc4UL, 0x0080008100000000UL, 0x0000000230007c00UL,
  0x0000006430000424UL, 0x30007c0000000000UL, 0x30007bc440000000UL, 0x0000000000000064UL,
  0x000001fd008000e1UL, 0x44007c0000802181UL, 0x440200e300100034UL, 0x0000115504040303UL,
  0x0026009810634303UL, 0x0025000000970000UL, 0x440a7c0000000001UL, 0x440d7c0000000000UL,
  0x0080228100000000UL, 0x0800000064000042UL, 0x64020123156000fcUL, 0x0000000000088000UL,
  0x0000168f00000003UL, 0x000000000001f05fUL, 0x06a403fd00000000UL, 0x640c004300000001UL,
  0x2042204200000000UL, 0x00000001640b7c00UL, 0xfefa517365001603UL, 0xff1b37d300005020UL,
  0xff2722ba00004fbeUL, 0xfedd293f0000977eUL, 0xfefa1e1700003cefUL, 0xff0b29b70000850dUL,
  0xfeff00000000436bUL, 0xff3734e70000fc5fUL, 0xfef32fab00005421UL, 0xff03557300006e5fUL,
  0xff0000000000166cUL, 0xff071b78000000aaUL, 0xfef41fac0000863dUL, 0xff044bde00004718UL,
  0xfef726ed00007b7bUL, 0xfeff000f000080efUL, 0xfef824c50000d6e3UL, 0xfefa2c240000ba83UL,
  0xff1020750000ad23UL, 0xfeff25c100007b4eUL, 0xff013cac0000da3fUL, 0xfef93eb20000ecf3UL,
  0xff00000100008a62UL, 0xfeec35c500000eb6UL, 0xfefa1f6b000069e2UL, 0xfefb23570000375cUL,
  0xfef01c9f0000197aUL, 0xfeff24720000592bUL, 0xfecf1ad500005772UL, 0xfeee439c00002422UL,
  0xfef831af0000bc0cUL, 0xfee62e6a0000f0c5UL, 0xfed326310000b4fcUL, 0xfef021be0000a357UL,
  0xfefd210600000056UL, 0xfef32663000098efUL, 0xfef83b1000007a93UL, 0xfefc3d600000e064UL,
  0xfefa18ac0000da76UL, 0xfeee349400000953UL, 0xfef82e1400005643UL, 0xfef41d30000098f8UL,
  0xfedb6987000074a8UL, 0xfef451120000d40cUL, 0xfef14b2900008530UL, 0xff3412b8000051ecUL,
  0xff0100840000fe19UL, 0xff193630000034a1UL, 0xfef420950000667cUL, 0xff0d2cfd00000939UL,
  0xfef448f40000339fUL, 0xff0000010000d9a6UL, 0xff2d153300001899UL, 0xfef819880000a05dUL,
  0xfedf166700002bddUL, 0xfefb556700008b98UL, 0xfeff0005000049abUL, 0xff0041e70000f599UL,
  0xff000006000020f3UL, 0xff072e080000005bUL, 0xff071b7200002b78UL, 0xfeff00550000848aUL,
  0xfef02f570000b90fUL, 0xfedf4232000065d1UL, 0xfee5250500004a7dUL, 0xfefc4b5600006443UL,
  0xff2d1a0e0000df8dUL, 0xff2319ee000098dfUL, 0xfeff20720000c1c3UL, 0xff1535c200008e72UL,
  0xff03402c00003c61UL, 0xff1022660000c28eUL, 0xff2910710000d47cUL, 0xfeff011a0000242fUL,
  0xfefa177300000586UL, 0xff1a102300004665UL, 0xff3b0dbf0000aa86UL, 0xfeff0002000067b1UL,
  0xfee12e9f0000de87UL, 0xff07342e00001083UL, 0xff29108200003c5aUL, 0xfef02c5000005ef4UL,
  0xfef4203300007182UL, 0xfef650d0000069b7UL, 0xfeff44bf0000a5f2UL, 0xfef21d2c00007681UL,
  0xff1f100c00000a6eUL, 0xfeff00000000a9faUL, 0x008022410000fcfeUL, 0x080000005c000042UL,
  0x5c027c0015000000UL, 0x5c07004300070000UL, 0x0000002000004000UL, 0x000000005c0c0043UL,
  0x0080200110411041UL, 0x0008000014007c00UL, 0x342e000014020123UL, 0x0058000400260026UL,
  0x0000000000000d10UL, 0x0000000400000001UL, 0x0010000000000024UL, 0x00000006140c0042UL,
  0x140d004300000007UL, 0x342ff09f00000016UL, 0x0000000014110043UL, 0x0080212100000000UL,
  0x0008018438007c00UL, 0x711151c038020043UL, 0x380500c300000c60UL, 0x0000000000000000UL,
  0x0000000000000000UL, 0x0010000000000024UL, 0x00000006380c0042UL, 0x380d004300000007UL,
  0x71115e5f00000001UL, 0x0000000038110043UL, 0x0080210100000008UL, 0x0008000834007c00UL,
  0x342ff06034020123UL, 0x0058000400260026UL, 0x0000000400000d10UL, 0x0001f06000000016UL,
  0x0010000000000024UL, 0x00000006340c0042UL, 0x340d004300000007UL, 0x3431e0ff00000016UL,
  0x0000000034110043UL, 0x100a7c0000000000UL, 0x1012004300000025UL, 0x0000001300000001UL,
  0x00000029101e7c00UL, 0x0000001910227c00UL, 0x0000000110007c00UL, 0x44007c0034002001UL,
  0x5c00200100100035UL, 0x1400200164002001UL, 0x34007fe438002001UL, 0x0000000000000064UL,
  0x0000000210007c00UL, 0x0000006410000424UL, 0x10007c0000000000UL, 0x10007bc440000000UL,
  0x0000000000000064UL, 0x00000000100a7c00UL, 0x0000000010120043UL, 0x101e7c0000000000UL,
  0x10227c0000000000UL, 0x34007c0000000000UL, 0x3400042400000002UL, 0x0000000000000064UL,
  0x4000000034007c00UL, 0x0000006434007bc4UL, 0x0080010100000000UL, 0x0000000244007c00UL,
  0x0000006444000424UL, 0x44007c0000000000UL, 0x44007bc440000000UL, 0x0000000000000064UL,
  0x5c007c0000800181UL, 0x5c00042408000002UL, 0x0000000000000064UL, 0x480000005c007c00UL,
  0x000000645c007bc4UL, 0x0080024100000000UL, 0x0800000264007c00UL, 0x0000006464000424UL,
  0x64007c0000000000UL, 0x64007bc448000000UL, 0x0000000000000064UL, 0x14007c0000800281UL,
  0x1400042400000002UL, 0x0000000000000064UL, 0x4000000014007c00UL, 0x0000006414007bc4UL,
  0x0080000100000000UL, 0x0000000238007c00UL, 0x0000006438000424UL, 0x38007c0000000000UL,
  0x38007bc440000000UL, 0x0000000000000064UL, 0x0000021d00800121UL, 0x48007c00008021a1UL,
  0x480200e300100034UL, 0x0000110018160101UL, 0x0026034410774004UL, 0x0025000003430000UL,
  0x480a7c0000170060UL, 0x480d7c0000000000UL, 0x0080214100000000UL, 0x001000203c007c00UL,
  0x181601013c0200e3UL, 0x1077400000001100UL, 0x0343000000260344UL, 0x002f186000250000UL,
  0x000000003c0a7c00UL, 0x000000003c0d7c00UL, 0x40007c0000802161UL, 0x400200e300100020UL,
  0x0000110018160101UL, 0x0026034410774000UL, 0x0025000003430000UL, 0x400a7c0000473060UL,
  0x400d7c0000000000UL, 0x0080218100000000UL, 0x0010002044007c00UL, 0x18160101440200e3UL,
  0x1063440000001100UL, 0x0343000000260344UL, 0x005f486000250000UL, 0x00000000440a7c00UL,
  0x00000000440d7c00UL, 0x6000004200802261UL, 0x156000fc08000000UL, 0x0009000060020123UL,
  0x0000001700000000UL, 0x0000875f0000875fUL, 0x0000000000000000UL, 0x0000000107a403e9UL,
  0x00000000600c0043UL, 0x600b7c0020422042UL, 0x6100060300000001UL, 0x00007700ffd92180UL,
  0x0000109dffb02b62UL, 0x00000e34ffd63b34UL, 0x00004854fff729aeUL, 0x000086c6ffe62c0aUL,
  0x0000bc5cffea26f3UL, 0x00000d92ffa631a0UL, 0x0000f0c4ffef23efUL, 0x0000855bffd820e8UL,
  0x00004becffe82ce4UL, 0x0000298bfff538cdUL, 0x000020d3ff9647f9UL, 0x00003c3cffe82570UL,
  0x00008ce5fffa3c6bUL, 0x00004c01ffa32cf6UL, 0x00000ca7ffaf4088UL, 0x0000f72cffd02fc6UL,
  0x00006f36fff2115eUL, 0x0000e8bbffd5217fUL, 0x00003bddfff73b84UL, 0x000074c9ffab486aUL,
  0x0000e328000535ffUL, 0x000050bb000e33adUL, 0x0000f177fff834b1UL, 0x68000042008022a1UL,
  0x0500016008000000UL, 0x00078c0068027c00UL, 0x7a30613668070043UL, 0x680c00430000580aUL,
  0x1041104100000000UL, 0x34007c0000802101UL, 0x3402012300080004UL, 0x00260026342ff060UL,
  0x00000d1000580016UL, 0x0000000100000058UL, 0x0000002400000000UL, 0x340c004200100000UL,
  0x0000000700000006UL, 0x00000001340d0043UL, 0x341100433431e0ffUL, 0x0000000000000000UL,
  0x24007c0000802081UL, 0x2402004300080184UL, 0x00000840711211f0UL, 0x00000000240500c3UL,
  0x0000000000000000UL, 0x0000002400000000UL, 0x240c004200100000UL, 0x0000000700000006UL,
  0x00000001240d0043UL, 0x2411004371121a6fUL, 0x0000000800000000UL, 0x30007c00008020e1UL,
  0x3002012300080004UL, 0x00260026342ff076UL, 0x00000d1000580016UL, 0x0000000100000058UL,
  0x0000002400000000UL, 0x300c004200100000UL, 0x0000000700000006UL, 0x00000001300d0043UL,
  0x301100433431e0ffUL, 0x0000000000000000UL, 0x20007c0000802061UL, 0x2002012300080004UL,
  0x00260026342ff08cUL, 0x00000d1000580016UL, 0x0000000100000058UL, 0x0000002400000000UL,
  0x200c004200100000UL, 0x0000000700000006UL, 0x00000001200d0043UL, 0x201100433431e0ffUL,
  0x0000000000000000UL, 0x14007c0000802001UL, 0x1402012300080004UL, 0x00260026342ff0a2UL,
  0x00000d1000580016UL, 0x0000000100000058UL, 0x0000002400000000UL, 0x140c004200100000UL,
  0x0000000700000006UL, 0x00000001140d0043UL, 0x141100433431e0ffUL, 0x0000000000000000UL,
  0x1c007c0000802041UL, 0x1c02004300080104UL, 0x000087603431e0c0UL, 0x000000001c0500c3UL,
  0x0000000000008760UL, 0x0000002400000000UL, 0x1c0c004200100000UL, 0x0000000700000006UL,
  0x000000011c0d0043UL, 0x1c1100433432685fUL, 0x0000000000000000UL, 0x2c007c00008020c1UL,
  0x2c0200430008010cUL, 0x0000876034345880UL, 0x000000002c0500c3UL, 0x0000000000008760UL,
  0x0000002400000000UL, 0x2c0c004200100000UL, 0x0000000700000006UL, 0x000000012c0d0043UL,
  0x2c1100433434e01fUL, 0x0000000000000000UL, 0x0000002b10087c00UL, 0x0000000f100c0163UL,
  0x0000001b00000009UL, 0x0000000900000007UL, 0x0000000100000015UL, 0x0000001700000009UL,
  0x0000000900000011UL, 0x0000001910207c00UL, 0x0000002710240043UL, 0x10007c0000000005UL,
  0x2c00200100000001UL, 0x001000213c007c00UL, 0x0010002140007c00UL, 0x0010002144007c00UL,
  0x0010003548007c00UL, 0x6800200160002001UL, 0x1c00200114002001UL, 0x2400200120002001UL,
  0x3400200130002001UL, 0x000000642c007fe4UL, 0x10007c0000000000UL, 0x1000042400000002UL,
  0x0000000000000064UL, 0x4000000010007c00UL, 0x0000006410007bc4UL, 0x10087c0000000000UL,
  0x100c016300000000UL, 0x0000000000000000UL, 0x0000000000000000UL, 0x0000000000000000UL,
  0x0000000000000000UL, 0x0000000000000000UL, 0x10207c0000000000UL, 0x1024004300000000UL,
  0x0000000000000000UL, 0x000000022c007c00UL, 0x000000642c000424UL, 0x2c007c0000000000UL,
  0x2c007bc440000000UL, 0x0000000000000064UL, 0x3c007c00008000c1UL, 0x3c00042400000002UL,
  0x0000000000000064UL, 0x400000003c007c00UL, 0x000000643c007bc4UL, 0x0080014100000000UL,
  0x0000000240007c00UL, 0x0000006440000424UL, 0x40007c0000000000UL, 0x40007bc440000000UL,
  0x0000000000000064UL, 0x44007c0000800161UL, 0x4400042400000002UL, 0x0000000000000064UL,
  0x4000000044007c00UL, 0x0000006444007bc4UL, 0x0080018100000000UL, 0x0000000248007c00UL,
  0x0000006448000424UL, 0x48007c0000000000UL, 0x48007bc440000000UL, 0x0000000000000064UL,
  0x60007c00008001a1UL, 0x6000042408000002UL, 0x0000000000000064UL, 0x4800000060007c00UL,
  0x0000006460007bc4UL, 0x0080026100000000UL, 0x0800000268007c00UL, 0x0000006468000424UL,
  0x68007c0000000000UL, 0x68007bc448000000UL, 0x0000000000000064UL, 0x14007c00008002a1UL,
  0x1400042400000002UL, 0x0000000000000064UL, 0x4000000014007c00UL, 0x0000006414007bc4UL,
  0x0080000100000000UL, 0x000000021c007c00UL, 0x000000641c000424UL, 0x1c007c0000000000UL,
  0x1c007bc440000000UL, 0x0000000000000064UL, 0x20007c0000800041UL, 0x2000042400000002UL,
  0x0000000000000064UL, 0x4000000020007c00UL, 0x0000006420007bc4UL, 0x0080006100000000UL,
  0x0000000224007c00UL, 0x0000006424000424UL, 0x24007c0000000000UL, 0x24007bc440000000UL,
  0x0000000000000064UL, 0x30007c0000800081UL, 0x3000042400000002UL, 0x0000000000000064UL,
  0x4000000030007c00UL, 0x0000006430007bc4UL, 0x008000e100000000UL, 0x0000000234007c00UL,
  0x0000006434000424UL, 0x34007c0000000000UL, 0x34007bc440000000UL, 0x0000000000000064UL,
  0x0000023d00800101UL, 0x3c007c0000802141UL, 0x3c0200e300000054UL, 0x0000110018180101UL,
  0x0026039010a34303UL, 0x00250000038f0000UL, 0x3c0a7c0000000001UL, 0x3c0c004300000000UL,
  0x0000000000000005UL, 0x5c00004200802241UL, 0x156000fc08000000UL, 0x000980005c020123UL,
  0x0000001700000000UL, 0x00021d7f0000875fUL, 0x0000000000000000UL, 0x00000001068403e9UL,
  0x000000005c0c0043UL, 0x5c0b7c0020422042UL, 0x5d00180300000001UL, 0x00000c19ffca05d5UL,
  0x0000bc6bffd21921UL, 0x00009003ff6046e1UL, 0x00000f3affce12bfUL, 0x0000f3dbffb12875UL,
  0x0000b5bfffda0911UL, 0x00002f6affb83088UL, 0x0000dbb6ffbc22d1UL, 0x00001153ffb81189UL,
  0x0000954bffb726f2UL, 0x000064eeffbb22bcUL, 0x00005b28ff4c3666UL, 0x0000131cffcd0b0eUL,
  0x000059e0ffd806f6UL, 0x0000f61fffd305feUL, 0x000010e9ff332e68UL, 0x00009b31ffc90349UL,
  0x000076b3ffdc054fUL, 0x00005616ffce0551UL, 0x0000e211ffde058aUL, 0x0000e49cffb2224cUL,
  0x0000eb0dffc7142fUL, 0x000076e7ffdd06d1UL, 0x0000605bffe305c1UL, 0x0000f19cffce1407UL,
  0x00000e440005012bUL, 0x0000b9caffc01ee1UL, 0x0000c76effca05c8UL, 0x00006fbbffcf055eUL,
  0x0000dc72ffc4042dUL, 0x00002d6fffd606e9UL, 0x0000e8cfff9a2958UL, 0x00002f76ffc31609UL,
  0x00000be2ffce11f1UL, 0x0000e384ff6c5907UL, 0x00005f2effd70631UL, 0x00000671ffe0078cUL,
  0x00003d9cffcd064dUL, 0x00000788ffc71583UL, 0x0000188effce19ffUL, 0x000027fbff8e348dUL,
  0x000056caffbf3020UL, 0x00001172ffe01131UL, 0x0000beb0ffb3304dUL, 0x00007e2dffc712bcUL,
  0x0000580dffc918a6UL, 0x00002979ffc72504UL, 0x00006ca0ffab3ecaUL, 0x0000ddfcffcf062fUL,
  0x0000d1afffc707d1UL, 0x00008861ffcc04bcUL, 0x00008939ffcc0782UL, 0x00003d39ffc21d73UL,
  0x0000b0d3ffcf0aecUL, 0x0000edadff8c3741UL, 0x000067b6ffcf0583UL, 0x00002503fff408e7UL,
  0x000094ceffce13c4UL, 0x0000487affc71e4fUL, 0x0000e8b0ff9133f7UL, 0x0000d8adffb3343aUL,
  0x0000c60bffd20642UL, 0x0000f344ffe00800UL, 0x00002564ffb530a0UL, 0x0000368cffb3225bUL,
  0x00001188ffc80794UL, 0x0000ef73ff3a3581UL, 0x00007845ffcc0957UL, 0x0000b698ff962270UL,
  0x00000afdffa547b3UL, 0x0000db69ffb92b7bUL, 0x0000fa94ffdd0642UL, 0x00005d1cff9a2dbbUL,
  0x0000d027ffce0ed2UL, 0x00006d5affc020adUL, 0x0000c93fffcc06c7UL, 0x00006b80ffd812e8UL,
  0x00004a43ffb42e54UL, 0x000060b1ffb03a30UL, 0x0000e54cffb03335UL, 0x0000d12cffa937e5UL,
  0x00002c7eff843cecUL, 0x00002d4fffd00f1bUL, 0x00009f1bff743b47UL, 0x0000a6eaffc911b0UL,
  0x0000ad92ffe3106eUL, 0x00004bdcff8a3485UL, 0x00003552ffc11072UL, 0x000040ecffc61247UL,
  0x00001576ff8e463dUL, 0x0000088cffe50ad6UL, 0x00005029ff934b48UL, 0x000004b3ffce0a2cUL,
  0x00000088ffb92516UL, 0x00000072ffaf3382UL, 0x00009df9ffca0f15UL, 0x6400004200802281UL,
  0x1500006008000000UL, 0x0006800064027c00UL, 0x9d4c478d64070043UL, 0x640c004300000001UL,
  0x1041104100000000UL, 0x30007c00008020e1UL, 0x300200430008c100UL, 0x0000876034345880UL,
  0x00000000300500c3UL, 0x0000000100008760UL, 0x0000002400000000UL, 0x300c004200100000UL,
  0x0000000700000006UL, 0x00000004300d0043UL, 0x301100433434e01fUL, 0x0000000000000000UL,
  0x18007c0000802021UL, 0x180200430008c184UL, 0x0000090071119e40UL, 0x00000000180500c3UL,
  0x0000000000000000UL, 0x0000002400000000UL, 0x180c004200100000UL, 0x0000000700000006UL,
  0x00000001180d0043UL, 0x181100437111a77fUL, 0x0000000800000000UL, 0x2c007c00008020c1UL,
  0x2c02004300080108UL, 0x0000876034270000UL, 0x000000002c0500c3UL, 0x0000000000008760UL,
  0x0000002400000000UL, 0x2c0c004200100000UL, 0x0000000700000006UL, 0x000000042c0d0043UL,
  0x2c11004334291dbfUL, 0x0000000000000000UL, 0x24007c0000802081UL, 0x2402004300080108UL,
  0x0000876034323b00UL, 0x00000000240500c3UL, 0x0000000000008760UL, 0x0000002400000000UL,
  0x240c004200100000UL, 0x0000000700000006UL, 0x00000004240d0043UL, 0x24110043343458bfUL,
  0x0000000000000000UL, 0x0000002910067c00UL, 0x0000002510087c00UL, 0x0000000f100c0043UL,
  0x101e7c0000000003UL, 0x10227c0000000015UL, 0x10007c0000000025UL, 0x2400200100000001UL,
  0x3c007c002c002001UL, 0x5c00200100000055UL, 0x1800200164002001UL, 0x24007fe430002001UL,
  0x0000000000000064UL, 0x000000642c007fe4UL, 0x10007c0000000000UL, 0x1000042400000002UL,
  0x0000000000000064UL, 0x4000000010007c00UL, 0x0000006410007bc4UL, 0x10067c0000000000UL,
  0x10087c0000000000UL, 0x100c004300000000UL, 0x0000000000000000UL, 0x00000000101e7c00UL,
  0x0000000010227c00UL, 0x0000000224007c00UL, 0x0000006424000424UL, 0x24007c0000000000UL,
  0x24007bc440000000UL, 0x0000000000000064UL, 0x2c007c0000800081UL, 0x2c00042400000002UL,
  0x0000000000000064UL, 0x400000002c007c00UL, 0x000000642c007bc4UL, 0x008000c100000000UL,
  0x000000023c007c00UL, 0x000000643c000424UL, 0x3c007c0000000000UL, 0x3c007bc440000000UL,
  0x0000000000000064UL, 0x5c007c0000800141UL, 0x5c00042408000002UL, 0x0000000000000064UL,
  0x480000005c007c00UL, 0x000000645c007bc4UL, 0x0080024100000000UL, 0x0800000264007c00UL,
  0x0000006464000424UL, 0x64007c0000000000UL, 0x64007bc448000000UL, 0x0000000000000064UL,
  0x18007c0000800281UL, 0x1800042400000002UL, 0x0000000000000064UL, 0x4000000018007c00UL,
  0x0000006418007bc4UL, 0x0080002100000000UL, 0x0000000230007c00UL, 0x0000006430000424UL,
  0x30007c0000000000UL, 0x30007bc440000000UL, 0x0000000000000064UL, 0x0000025d008000e1UL,
  0x6000004200802261UL, 0x09000f6008000000UL, 0x0000000060027c00UL, 0x0001000160070043UL,
  0x600c004300000001UL, 0x1041104100000000UL, 0x68000042008022a1UL, 0x0900016008000000UL,
  0x0003800768027c00UL, 0x0000400068070043UL, 0x680c004300004000UL, 0x1041204200000000UL,
  0x30007c00008020e1UL, 0x3002004300080100UL, 0x0000876034270000UL, 0x00000000300500c3UL,
  0x0000000000008760UL, 0x0000002400000000UL, 0x300c004200100000UL, 0x0000000700000006UL,
  0x00000004300d0043UL, 0x3011004334291dbfUL, 0x0000000000000000UL, 0x20007c0000802061UL,
  0x2002004300080100UL, 0x0000876034323b00UL, 0x00000000200500c3UL, 0x0000000000008760UL,
  0x0000002400000000UL, 0x200c004200100000UL, 0x0000000700000006UL, 0x00000004200d0043UL,
  0x20110043343458bfUL, 0x0000000000000000UL, 0x1c007c0000802041UL, 0x1c02004300080100UL,
  0x0000876034270000UL, 0x000000001c0500c3UL, 0x0000000000008760UL, 0x0000002400000000UL,
  0x1c0c004200100000UL, 0x0000000700000006UL, 0x000000041c0d0043UL, 0x1c11004334291dbfUL,
  0x0000000000000000UL, 0x38007c0000802121UL, 0x3802004300880108UL, 0x00008760342e0000UL,
  0x00000000380500c3UL, 0x0000000000010ec0UL, 0x0000002400000000UL, 0x380c004200100000UL,
  0x0000000700000006UL, 0x00000004380d0043UL, 0x3811004334323b3fUL, 0x0000000000000000UL,
  0x0000002b100b7c00UL, 0x0000000f10200043UL, 0x1024004300000007UL, 0x0000000500000027UL,
  0x0000000110007c00UL, 0x6000200138002001UL, 0x1c00200168002001UL, 0x3000200120002001UL,
  0x0000006438007fe4UL, 0x10007c0000000000UL, 0x1000042400000002UL, 0x0000000000000064UL,
  0x4000000010007c00UL, 0x0000006410007bc4UL, 0x100b7c0000000000UL, 0x1020004300000000UL,
  0x0000000000000000UL, 0x0000000010240043UL, 0x38007c0000000000UL, 0x3800042400000002UL,
  0x0000000000000064UL, 0x4000000038007c00UL, 0x0000006438007bc4UL, 0x0080012100000000UL,
  0x0800000260007c00UL, 0x0000006460000424UL, 0x60007c0000000000UL, 0x60007bc448000000UL,
  0x0000000000000064UL, 0x68007c0000800261UL, 0x6800042408000002UL, 0x0000000000000064UL,
  0x4800000068007c00UL, 0x0000006468007bc4UL, 0x008002a100000000UL, 0x000000021c007c00UL,
  0x000000641c000424UL, 0x1c007c0000000000UL, 0x1c007bc440000000UL, 0x0000000000000064UL,
  0x20007c0000800041UL, 0x2000042400000002UL, 0x0000000000000064UL, 0x4000000020007c00UL,
  0x0000006420007bc4UL, 0x0080006100000000UL, 0x0000000230007c00UL, 0x0000006430000424UL,
  0x30007c0000000000UL, 0x30007bc440000000UL, 0x0000000000000064UL, 0x0000027d008000e1UL,
  0x5c00004200802241UL, 0x0500016008000000UL, 0x0009ac035c027c00UL, 0x927974bc5c070043UL,
  0x5c0c00430000578dUL, 0x1041204200000000UL, 0x54007c0000802201UL, 0x540200430174104cUL,
  0x0210100f00087f80UL, 0x0000000055000203UL, 0x0000000200000001UL, 0x0000000400000003UL,
  0x0000000600000005UL, 0x0000000800000007UL, 0x0000000a00000009UL, 0x0000000c0000000bUL,
  0x0000000e0000000dUL, 0x560005c3000000cfUL, 0x0000000040000000UL, 0x0000000040000000UL,
  0x0000000040000000UL, 0x0000000040000000UL, 0x0000000040000000UL, 0x0000000040000000UL,
  0x0000000040000000UL, 0x0000000040000000UL, 0x0000000040000000UL, 0x0000000040000000UL,
  0x0000000040000000UL, 0x0000000040000000UL, 0x0000000040000000UL, 0x0000000040000000UL,
  0x0000000040000000UL, 0x0000000040000000UL, 0x0000000040000000UL, 0x0000000040000000UL,
  0x0000000040000000UL, 0x0000000040000000UL, 0x0000000040000000UL, 0x0000000040000000UL,
  0x0000000040000000UL, 0x34007c0000802101UL, 0x3402004300880100UL, 0x00008760342e0000UL,
  0x00000000340500c3UL, 0x0000000000010ec0UL, 0x0000002400000000UL, 0x340c004200100000UL,
  0x0000000700000006UL, 0x00000004340d0043UL, 0x3411004334323b3fUL, 0x0000000000000000UL,
  0x24007c0000802081UL, 0x2402004300080100UL, 0x0000876034323b00UL, 0x00000000240500c3UL,
  0x0000000000008760UL, 0x0000002400000000UL, 0x240c004200100000UL, 0x0000000700000006UL,
  0x00000004240d0043UL, 0x24110043343458bfUL, 0x0000000000000000UL, 0x1c007c0000802041UL,
  0x1c02012300080008UL, 0x0026002634270000UL, 0x00000e4000600018UL, 0x0000000400000018UL,
  0x0000002400021d80UL, 0x1c0c004200100000UL, 0x0000000700000006UL, 0x000000041c0d0043UL,
  0x1c11004334291dbfUL, 0x0000000000000000UL, 0x0000002110047c00UL, 0x00000025101c7c00UL,
  0x00000011101e0043UL, 0x10007c0000000009UL, 0x1c00200100000001UL, 0x5c00200154002001UL,
  0x3400200124002001UL, 0x000000641c007fe4UL, 0x10007c0000000000UL, 0x1000042400000002UL,
  0x0000000000000064UL, 0x4000000010007c00UL, 0x0000006410007bc4UL, 0x10047c0000000000UL,
  0x101c7c0000000000UL, 0x101e004300000000UL, 0x0000000000000000UL, 0x000000021c007c00UL,
  0x000000641c000424UL, 0x1c007c0000000000UL, 0x1c007bc440000000UL, 0x0000000000000064UL,
  0x54007c0000800041UL, 0x5400042400881082UL, 0x0000000000000064UL, 0x4088108054007c00UL,
  0x0000006454007bc4UL, 0x0080020100000000UL, 0x080000025c007c00UL, 0x000000645c000424UL,
  0x5c007c0000000000UL, 0x5c007bc448000000UL, 0x0000000000000064UL, 0x24007c0000800241UL,
  0x2400042400000002UL, 0x0000000000000064UL, 0x4000000024007c00UL, 0x0000006424007bc4UL,
  0x0080008100000000UL, 0x0000000234007c00UL, 0x0000006434000424UL, 0x34007c0000000000UL,
  0x34007bc440000000UL, 0x0000000000000064UL, 0x0000029d00800101UL, 0x40007c0000802161UL,
  0x400200e300000054UL, 0x0000222601010305UL, 0x0026002610a34404UL, 0x0024000000250000UL,
  0x400a7c0000000001UL, 0x400c004300000000UL, 0x0000000000ffff8dUL, 0x44007c0000802181UL,
  0x440200e300000054UL, 0x0000224601010205UL, 0x0026002610a34404UL, 0x0025000100250000UL,
  0x440a7c0000000001UL, 0x440c004300000000UL, 0x0000000000ffff8dUL, 0x6400004200802281UL,
  0x0900016008000000UL, 0x0000000064027c00UL, 0x0000000164070043UL, 0x640c004300000001UL,
  0x2042204200000000UL, 0x6000004200802261UL, 0x156000fc08000000UL, 0x0007800060020123UL,
  0x0000000000000000UL, 0x0000875f00000168UL, 0x0000000000000000UL, 0x0000000106840200UL,
  0x00000000600c0043UL, 0x600b7c0020422042UL, 0x6100180300000001UL, 0x00009dac000b261eUL,
  0x0000ddf7000d0c83UL, 0x0000e330000f05f5UL, 0x0000906e0011051dUL, 0x0000c6b3001106beUL,
  0x000095ce00102a9cUL, 0x00000778000d047dUL, 0x0000efb6001103e4UL, 0x00000877001117b7UL,
  0x0000626f001203c2UL, 0x0000f69d000d05b5UL, 0x0000d21b000206bbUL, 0x0000746700121d1aUL,
  0x0000758d001124ebUL, 0x0000d7c0001328cdUL, 0x00009e09000f029dUL, 0x00004ea8000a6278UL,
  0x00006cf200191cf8UL, 0x00006a0800112a19UL, 0x0000a417000e209aUL, 0x0000475800110234UL,
  0x00005da7001208d1UL, 0x00003360001130deUL, 0x0000f3a1001839feUL, 0x0000e8e800110d32UL,
  0x0000c2ec0028193aUL, 0x00004cf000120628UL, 0x0000316e00101e16UL, 0x0000f02e00112a2eUL,
  0x0000c2c70004311eUL, 0x00004d7c001314d8UL, 0x00006d4c00120405UL, 0x00009a2900120b5eUL,
  0x0000a41700110814UL, 0x0000aa0c00140330UL, 0x000080840013186aUL, 0x0000803d00121ea0UL,
  0x000051d2001120c9UL, 0x00003025001006a0UL, 0x0000688300110e42UL, 0x000026ec0012035eUL,
  0x0000822c00130372UL, 0x00008f99000d12fbUL, 0x0000f106001103feUL, 0x000054aa000f1340UL,
  0x000062d4000f09deUL, 0x00001ca800120536UL, 0x0000a49f001204e5UL, 0x00000aa600112071UL,
  0x0000ce6a000b2c5aUL, 0x00003236001328d4UL, 0x00003ebc000e1772UL, 0x0000d5c100110abbUL,
  0x000024cf00111ec3UL, 0x00000b1200150721UL, 0x0000024600101cd2UL, 0x0000d81b00111358UL,
  0x0000bfe2000f12b3UL, 0x000060260011057dUL, 0x0000b82400130550UL, 0x00006075001103f0UL,
  0x00004dbd00113a35UL, 0x0000b156001319f8UL, 0x0000c1d300110292UL, 0x0000fc2b00110622UL,
  0x000026900010299fUL, 0x0000af6a0010041bUL, 0x0000cf9600101ea2UL, 0x0000a3b4000e05f5UL,
  0x000049c5001104b0UL, 0x00008b25000f04d9UL, 0x00008e7500191ce6UL, 0x00003bec00120394UL,
  0x0000cedc00120dadUL, 0x0000b678001105ccUL, 0x0000f3d8000c37e0UL, 0x0000ad8c000d0d25UL,
  0x00008530001204afUL, 0x00007c07001203f6UL, 0x0000ae69001101eeUL, 0x0000deec001205aeUL,
  0x00009ab100150338UL, 0x00000bd400120c9eUL, 0x00006a4a0016042eUL, 0x0000a2e3000d0e73UL,
  0x00007188001511b2UL, 0x0000ea0d00040688UL, 0x0000a3e8000e0ee1UL, 0x000065f6000f1442UL,
  0x000098b2001404d4UL, 0x000076db000e1a18UL, 0x0000ee79000e02cdUL, 0x0000f96600111520UL,
  0x0000b8970010073cUL, 0x0000448e00120428UL, 0x0000ffe9000d17a5UL, 0x68000042008022a1UL,
  0x1500006008000000UL, 0x0007000068027c00UL, 0x1e757e4468070043UL, 0x680c00430000ffeeUL,
  0x1041104100000000UL, 0x24007c0000802081UL, 0x240201230008c000UL, 0x0026002634270000UL,
  0x00000e4000600001UL, 0x0000000100000000UL, 0x0000002400000001UL, 0x240c004200100000UL,
  0x0000000700000006UL, 0x00000060240d0043UL, 0x2411004334291dbfUL, 0x0000000000000000UL,
  0x1c007c0000802041UL, 0x1c0200430008c184UL, 0x000005a071124300UL, 0x000000001c0500c3UL,
  0x0000000000000000UL, 0x0000002400000000UL, 0x1c0c004200100000UL, 0x0000000700000006UL,
  0x000000011c0d0043UL, 0x1c110043711248dfUL, 0x0000000800000000UL, 0x38007c0000802121UL,
  0x380201230008c000UL, 0x0026002634270000UL, 0x00000e4000600001UL, 0x0000000100000000UL,
  0x0000002400000001UL, 0x380c004200100000UL, 0x0000000700000006UL, 0x00000060380d0043UL,
  0x3811004334291dbfUL, 0x0000000000000000UL, 0x28007c00008020a1UL, 0x280200430008c184UL,
  0x000003c0711264f0UL, 0x00000000280500c3UL, 0x0000000000000000UL, 0x0000002400000000UL,
  0x280c004200100000UL, 0x0000000700000006UL, 0x00000001280d0043UL, 0x28110043711268efUL,
  0x0000000800000000UL, 0x2c007c00008020c1UL, 0x2c02004300080108UL, 0x00000169342f0ec0UL,
  0x000000002c0500c3UL, 0x0000000000000169UL, 0x0000002400000000UL, 0x2c0c004200100000UL,
  0x0000000700000006UL, 0x000000602c0d0043UL, 0x2c110043342f965fUL, 0x0000000000000000UL,
  0x14007c0000802001UL, 0x1402004300080108UL, 0x00000169342f9620UL, 0x00000000140500c3UL,
  0x0000000000000169UL, 0x0000002400000000UL, 0x140c004200100000UL, 0x0000000700000006UL,
  0x00000060140d0043UL, 0x1411004334301dbfUL, 0x0000000000000000UL, 0x0000002b10027c00UL,
  0x0000002710087c00UL, 0x00000009100f0043UL, 0x1012004300000005UL, 0x0000000b00000013UL,
  0x0000002910207c00UL, 0x0000001710220063UL, 0x0000002700000019UL, 0x0000000110007c00UL,
  0x2c00200114002001UL, 0x0000005540007c00UL, 0x0000005544007c00UL, 0x6400200160002001UL,
  0x1c00200168002001UL, 0x2800200124002001UL, 0x14007fe438002001UL, 0x0000000000000064UL,
  0x000000642c007fe4UL, 0x10007c0000000000UL, 0x1000042400000002UL, 0x0000000000000064UL,
  0x4000000010007c00UL, 0x0000006410007bc4UL, 0x10027c0000000000UL, 0x10087c0000000000UL,
  0x100f004300000000UL, 0x0000000000000000UL, 0x0000000010120043UL, 0x10207c0000000000UL,
  0x1022006300000000UL, 0x0000000000000000UL, 0x14007c0000000000UL, 0x1400042400000002UL,
  0x0000000000000064UL, 0x4000000014007c00UL, 0x0000006414007bc4UL, 0x0080000100000000UL,
  0x000000022c007c00UL, 0x000000642c000424UL, 0x2c007c0000000000UL, 0x2c007bc440000000UL,
  0x0000000000000064UL, 0x40007c00008000c1UL, 0x4000042400000002UL, 0x0000000000000064UL,
  0x4000000040007c00UL, 0x0000006440007bc4UL, 0x0080016100000000UL, 0x0000000244007c00UL,
  0x0000006444000424UL, 0x44007c0000000000UL, 0x44007bc440000000UL, 0x0000000000000064UL,
  0x60007c0000800181UL, 0x6000042408000002UL, 0x0000000000000064UL, 0x4800000060007c00UL,
  0x0000006460007bc4UL, 0x0080026100000000UL, 0x0800000264007c00UL, 0x0000006464000424UL,
  0x64007c0000000000UL, 0x64007bc448000000UL, 0x0000000000000064UL, 0x68007c0000800281UL,
  0x6800042408000002UL, 0x0000000000000064UL, 0x4800000068007c00UL, 0x0000006468007bc4UL,
  0x008002a100000000UL, 0x000000021c007c00UL, 0x000000641c000424UL, 0x1c007c0000000000UL,
  0x1c007bc440000000UL, 0x0000000000000064UL, 0x24007c0000800041UL, 0x2400042400000002UL,
  0x0000000000000064UL, 0x4000000024007c00UL, 0x0000006424007bc4UL, 0x0080008100000000UL,
  0x0000000228007c00UL, 0x0000006428000424UL, 0x28007c0000000000UL, 0x28007bc440000000UL,
  0x0000000000000064UL, 0x38007c00008000a1UL, 0x3800042400000002UL, 0x0000000000000064UL,
  0x4000000038007c00UL, 0x0000006438007bc4UL, 0x0080012100000000UL, 0x00802241000002bdUL,
  0x080000005c000042UL, 0x5c027c0009000f60UL, 0x5c07004300000000UL, 0x0000000100010001UL,
  0x000000005c0c0043UL, 0x0080212110411041UL, 0x0008010038007c00UL, 0x342f0ec038020043UL,
  0x380500c300000169UL, 0x0000016900000000UL, 0x0000000000000000UL, 0x0010000000000024UL,
  0x00000006380c0042UL, 0x380d004300000007UL, 0x342f965f00000060UL, 0x0000000038110043UL,
  0x008020e100000000UL, 0x0008010030007c00UL, 0x342f962030020043UL, 0x300500c300000169UL,
  0x0000016900000000UL, 0x0000000000000000UL, 0x0010000000000024UL, 0x00000006300c0042UL,
  0x300d004300000007UL, 0x34301dbf00000060UL, 0x0000000030110043UL, 0x0080208100000000UL,
  0x0088010824007c00UL, 0x342e000024020043UL, 0x240500c300000169UL, 0x000002d200000000UL,
  0x0000000000000000UL, 0x0010000000000024UL, 0x00000006240c0042UL, 0x240d004300000007UL,
  0x342f0eff00000060UL, 0x0000000024110043UL, 0x10067c0000000000UL, 0x101e004300000025UL,
  0x0000000f00000013UL, 0x0000000110007c00UL, 0x5c00200124002001UL, 0x3800200130002001UL,
  0x0000006424007fe4UL, 0x10007c0000000000UL, 0x1000042400000002UL, 0x0000000000000064UL,
  0x4000000010007c00UL, 0x0000006410007bc4UL, 0x10067c0000000000UL, 0x101e004300000000UL,
  0x0000000000000000UL, 0x0000000224007c00UL, 0x0000006424000424UL, 0x24007c0000000000UL,
  0x24007bc440000000UL, 0x0000000000000064UL, 0x5c007c0000800081UL, 0x5c00042408000002UL,
  0x0000000000000064UL, 0x480000005c007c00UL, 0x000000645c007bc4UL, 0x0080024100000000UL,
  0x0000000230007c00UL, 0x0000006430000424UL, 0x30007c0000000000UL, 0x30007bc440000000UL,
  0x0000000000000064UL, 0x38007c00008000e1UL, 0x3800042400000002UL, 0x0000000000000064UL,
  0x4000000038007c00UL, 0x0000006438007bc4UL, 0x0080012100000000UL, 0x00802261000002ddUL,
  0x0800000060000042UL, 0x60027c0009000160UL, 0x6007004300038007UL, 0x0000400000004000UL,
  0x00000000600c0043UL, 0x0080228110412042UL, 0x0800000064000042UL, 0x64027c0005000160UL,
  0x6407004300082405UL, 0x0000a2cab33352daUL, 0x00000000640c0043UL, 0x0080222110412042UL,
  0x0174104c58007c00UL, 0x00087f8058020043UL, 0x590002030210100fUL, 0x0000000100000000UL,
  0x0000000300000002UL, 0x0000000500000004UL, 0x0000000700000006UL, 0x0000000900000008UL,
  0x0000000b0000000aUL, 0x0000000d0000000cUL, 0x000000cf0000000eUL, 0x400000005a0005c3UL,
  0x4000000000000000UL, 0x4000000000000000UL, 0x4000000000000000UL, 0x4000000000000000UL,
  0x4000000000000000UL, 0x4000000000000000UL, 0x4000000000000000UL, 0x4000000000000000UL,
  0x4000000000000000UL, 0x4000000000000000UL, 0x4000000000000000UL, 0x4000000000000000UL,
  0x4000000000000000UL, 0x4000000000000000UL, 0x4000000000000000UL, 0x4000000000000000UL,
  0x4000000000000000UL, 0x4000000000000000UL, 0x4000000000000000UL, 0x4000000000000000UL,
  0x4000000000000000UL, 0x4000000000000000UL, 0x008020a100000000UL, 0x0088010028007c00UL,
  0x342e000028020043UL, 0x280500c300000169UL, 0x000002d200000000UL, 0x0000000000000000UL,
  0x0010000000000024UL, 0x00000006280c0042UL, 0x280d004300000007UL, 0x342f0eff00000060UL,
  0x0000000028110043UL, 0x0080212100000000UL, 0x0008010038007c00UL, 0x342f0ec038020043UL,
  0x380500c300000169UL, 0x0000016900000000UL, 0x0000000000000000UL, 0x0010000000000024UL,
  0x00000006380c0042UL, 0x380d004300000007UL, 0x342f965f00000060UL, 0x0000000038110043UL,
  0x0080206100000000UL, 0x0008010020007c00UL, 0x342f962020020043UL, 0x200500c300000169UL,
  0x0000016900000000UL, 0x0000000000000000UL, 0x0010000000000024UL, 0x00000006200c0042UL,
  0x200d004300000007UL, 0x34301dbf00000060UL, 0x0000000020110043UL, 0x0080200100000000UL,
  0x0008000814007c00UL, 0x34301d8014020123UL, 0x0060000100130013UL, 0x0000000100000720UL,
  0x0000876000000060UL, 0x0010000000000024UL, 0x00000006140c0042UL, 0x140d004300000007UL,
  0x3430a51f00000060UL, 0x0000000014110043UL, 0x10027c0000000000UL, 0x101d7c0000000023UL,
  0x1020008300000029UL, 0x000000130000000bUL, 0x0000000700000027UL, 0x0000000110007c00UL,
  0x5800200114002001UL, 0x6400200160002001UL, 0x2800200120002001UL, 0x14007fe438002001UL,
  0x0000000000000064UL, 0x0000000210007c00UL, 0x0000006410000424UL, 0x10007c0000000000UL,
  0x10007bc440000000UL, 0x0000000000000064UL, 0x0000000010027c00UL, 0x00000000101d7c00UL,
  0x0000000010200083UL, 0x0000000000000000UL, 0x14007c0000000000UL, 0x1400042400000002UL,
  0x0000000000000064UL, 0x4000000014007c00UL, 0x0000006414007bc4UL, 0x0080000100000000UL,
  0x0088108258007c00UL, 0x0000006458000424UL, 0x58007c0000000000UL, 0x58007bc440881080UL,
  0x0000000000000064UL, 0x60007c0000800221UL, 0x6000042408000002UL, 0x0000000000000064UL,
  0x4800000060007c00UL, 0x0000006460007bc4UL, 0x0080026100000000UL, 0x0800000264007c00UL,
  0x0000006464000424UL, 0x64007c0000000000UL, 0x64007bc448000000UL, 0x0000000000000064UL,
  0x20007c0000800281UL, 0x2000042400000002UL, 0x0000000000000064UL, 0x4000000020007c00UL,
  0x0000006420007bc4UL, 0x0080006100000000UL, 0x0000000228007c00UL, 0x0000006428000424UL,
  0x28007c0000000000UL, 0x28007bc440000000UL, 0x0000000000000064UL, 0x38007c00008000a1UL,
  0x3800042400000002UL, 0x0000000000000064UL, 0x4000000038007c00UL, 0x0000006438007bc4UL,
  0x0080012100000000UL, 0x008021a1000002fdUL, 0x0000005448007c00UL, 0x14180101480200e3UL,
  0x10b7400400001100UL, 0x01c70000001301c8UL, 0x0013005000120000UL, 0x00000000480a7c00UL,
  0x00ffff95480c0043UL, 0x0080214100000000UL, 0x000000403c007c00UL, 0x141801013c0200e3UL,
  0x10b7400000001100UL, 0x01c70000001301c8UL, 0x0027145000120000UL, 0x000000003c0a7c00UL,
  0x00ffff953c0c0043UL, 0x0080216100000000UL, 0x0000004040007c00UL, 0x14180101400200e3UL,
  0x10b7400000001100UL, 0x01c70000001301c8UL, 0x003b285000120000UL, 0x00000000400a7c00UL,
  0x00ffff95400c0043UL, 0x0080218100000000UL, 0x0000004044007c00UL, 0x14180101440200e3UL,
  0x10a3440000001100UL, 0x01c70000001301c8UL, 0x004f3c5000120000UL, 0x00000000440a7c00UL,
  0x00ffff95440c0043UL, 0x008022a100000000UL, 0x0800000068000042UL, 0x68020123156000fcUL,
  0x0000000000090000UL, 0x00001c3300000013UL, 0x0000000000003867UL, 0x076403ed00000000UL,
  0x680c004300000001UL, 0x2042204200000000UL, 0x00000001680b7c00UL, 0x002a1c6469000a03UL,
  0x002724560000578cUL, 0x00454de50000a9e1UL, 0x002d1fef000016d1UL, 0xfff424cb00005ee6UL,
  0xfffb24710000d9d8UL, 0xffee22fb000084f4UL, 0x0062274000006727UL, 0x008428cb00001572UL,
  0x004525a000006fabUL, 0x00052b4b0000c1a2UL, 0x002d315c00000ad0UL, 0x0018389700001f3aUL,
  0x003f23e200004fe9UL, 0x003f28f3000011a8UL, 0x00362b7e00008830UL, 0xfff2311300002afdUL,
  0x005423f100003e30UL, 0x00103d1900009d4bUL, 0x004c2edf0000c1f8UL, 0x00553e24000018fcUL,
  0x0056385e000000a0UL, 0x004724f400004c65UL, 0x003d2774000068d2UL, 0xffd733c80000fcfbUL,
  0x002a379600006434UL, 0xfff5266a00002cc2UL, 0xfff2452f0000ab40UL, 0x000b27fb00005fe3UL,
  0xfffd39c10000a334UL, 0x000728130000bf15UL, 0xffe0296e000002d8UL, 0x004022fc000097fbUL,
  0x005b360600004b99UL, 0xffed2c560000db88UL, 0x002d2b3d00003837UL, 0x003624b700006a82UL,
  0x000f251100005015UL, 0x00212f6b0000704eUL, 0xffff27310000a36eUL, 0x008020610000ed29UL,
  0x0008c00020007c00UL, 0x34301d8020020123UL, 0x0060001800130013UL, 0x0000006000000720UL,
  0x0000000000000001UL, 0x0010000000000024UL, 0x00000006200c0042UL, 0x200d004300000007UL,
  0x3430a51f00000002UL, 0x0000000020110043UL, 0x008020a100000000UL, 0x0008c18428007c00UL,
  0x711126a028020043UL, 0x280500c300000f00UL, 0x0000000000000000UL, 0x0000000000000000UL,
  0x0010000000000024UL, 0x00000006280c0042UL, 0x280d004300000007UL, 0x711135df00000001UL,
  0x0000000028110043UL, 0x0080202100000008UL, 0x0008c00018007c00UL, 0x34301d9818020123UL,
  0x0060001800130013UL, 0x0000006000000720UL, 0x0000000000000001UL, 0x0010000000000024UL,
  0x00000006180c0042UL, 0x180d004300000007UL, 0x3430a51f00000002UL, 0x0000000018110043UL,
  0x0080212100000000UL, 0x0008c00038007c00UL, 0x34301db038020123UL, 0x0060001800130013UL,
  0x0000006000000720UL, 0x0000000000000001UL, 0x0010000000000024UL, 0x00000006380c0042UL,
  0x380d004300000007UL, 0x3430a51f00000002UL, 0x0000000038110043UL, 0x008020e100000000UL,
  0x0008c00030007c00UL, 0x34301dc830020123UL, 0x0060001800130013UL, 0x0000006000000720UL,
  0x0000000000000001UL, 0x0010000000000024UL, 0x00000006300c0042UL, 0x300d004300000007UL,
  0x3430a51f00000002UL, 0x0000000030110043UL, 0x0080200100000000UL, 0x0008000814007c00UL,
  0x342e000014020123UL, 0x0028001400130013UL, 0x00000014000002f8UL, 0x0000386800000002UL,
  0x0010000000000024UL, 0x00000006140c0042UL, 0x140d004300000007UL, 0x342e38a700000002UL,
  0x0000000014110043UL, 0x10027c0000000000UL, 0x100c01630000002bUL, 0x0000000b00000003UL,
  0x000000130000001bUL, 0x000000150000000bUL, 0x0000000b0000000fUL, 0x0000000700000017UL,
  0x10247c000000000bUL, 0x10007c0000000019UL, 0x1400200100000001UL, 0x000000413c007c00UL,
  0x0000004140007c00UL, 0x0000004144007c00UL, 0x0000005548007c00UL, 0x1800200168002001UL,
  0x2800200120002001UL, 0x3800200130002001UL, 0x0000006414007fe4UL, 0x10007c0000000000UL,
  0x1000042400000002UL, 0x0000000000000064UL, 0x4000000010007c00UL, 0x0000006410007bc4UL,
  0x10027c0000000000UL, 0x100c016300000000UL, 0x0000000000000000UL, 0x0000000000000000UL,
  0x0000000000000000UL, 0x0000000000000000UL, 0x0000000000000000UL, 0x10247c0000000000UL,
  0x14007c0000000000UL, 0x1400042400000002UL, 0x0000000000000064UL, 0x4000000014007c00UL,
  0x0000006414007bc4UL, 0x0080000100000000UL, 0x000000023c007c00UL, 0x000000643c000424UL,
  0x3c007c0000000000UL, 0x3c007bc440000000UL, 0x0000000000000064UL, 0x40007c0000800141UL,
  0x4000042400000002UL, 0x0000000000000064UL, 0x4000000040007c00UL, 0x0000006440007bc4UL,
  0x0080016100000000UL, 0x0000000244007c00UL, 0x0000006444000424UL, 0x44007c0000000000UL,
  0x44007bc440000000UL, 0x0000000000000064UL, 0x48007c0000800181UL, 0x4800042400000002UL,
  0x0000000000000064UL, 0x4000000048007c00UL, 0x0000006448007bc4UL, 0x008001a100000000UL,
  0x0800000268007c00UL, 0x0000006468000424UL, 0x68007c0000000000UL, 0x68007bc448000000UL,
  0x0000000000000064UL, 0x18007c00008002a1UL, 0x1800042400000002UL, 0x0000000000000064UL,
  0x4000000018007c00UL, 0x0000006418007bc4UL, 0x0080002100000000UL, 0x0000000220007c00UL,
  0x0000006420000424UL, 0x20007c0000000000UL, 0x20007bc440000000UL, 0x0000000000000064UL,
  0x28007c0000800061UL, 0x2800042400000002UL, 0x0000000000000064UL, 0x4000000028007c00UL,
  0x0000006428007bc4UL, 0x008000a100000000UL, 0x0000000230007c00UL, 0x0000006430000424UL,
  0x30007c0000000000UL, 0x30007bc440000000UL, 0x0000000000000064UL, 0x38007c00008000e1UL,
  0x3800042400000002UL, 0x0000000000000064UL, 0x4000000038007c00UL, 0x0000006438007bc4UL,
  0x0080012100000000UL, 0x008022e10000031dUL, 0x0041cfe870007c00UL, 0x20000440700200e3UL,
  0x0014001400130098UL, 0x0097000000005ac5UL, 0x0006000100120000UL, 0x5c00004200802241UL,
  0x1500006008000000UL, 0x000680085c027c00UL, 0x613b71a45c070043UL, 0x5c0c00430000fff9UL,
  0x1041204200000000UL, 0x24007c0000802081UL, 0x2402012300080000UL, 0x00130013342e0000UL,
  0x000002f800280008UL, 0x0000000500000008UL, 0x0000002400003868UL, 0x240c004200100000UL,
  0x0000000700000006UL, 0x00000005240d0043UL, 0x24110043342e38a7UL, 0x0000000000000000UL,
  0x30007c00008020e1UL, 0x3002004300080108UL, 0x00000008342e3870UL, 0x00000000300500c3UL,
  0x0000000000000008UL, 0x0000002400000000UL, 0x300c004200100000UL, 0x0000000700000006UL,
  0x00000005300d0043UL, 0x30110043342e38d7UL, 0x0000000000000000UL, 0x0000002510097c00UL,
  0x0000002f101e7c00UL, 0x0000000910277c00UL, 0x0000000110007c00UL, 0x5c00200130002001UL,
  0x2400200170002001UL, 0x0000006430007fe4UL, 0x10007c0000000000UL, 0x1000042400000002UL,
  0x0000000000000064UL, 0x4000000010007c00UL, 0x0000006410007bc4UL, 0x10097c0000000000UL,
  0x101e7c0000000000UL, 0x10277c0000000000UL, 0x30007c0000000000UL, 0x3000042400000002UL,
  0x0000000000000064UL, 0x4000000030007c00UL, 0x0000006430007bc4UL, 0x008000e100000000UL,
  0x080000025c007c00UL, 0x000000645c000424UL, 0x5c007c0000000000UL, 0x5c007bc448000000UL,
  0x0000000000000064UL, 0x70007c0000800241UL, 0x7000042400420002UL, 0x0000000000000064UL,
  0x4042000070007c00UL, 0x0000006470007bc4UL, 0x008002e100000000UL, 0x0000000224007c00UL,
  0x0000006424000424UL, 0x24007c0000000000UL, 0x24007bc440000000UL, 0x0000000000000064UL,
  0x0000033d00800081UL, 0x3c007c0000802141UL, 0x3c02012300000740UL, 0x000011000a140101UL,
  0x0001001410a34202UL, 0xffff0000ffff0000UL, 0x0001010200000001UL, 0x3c0c004300000000UL,
  0x0000000000ffffebUL, 0x6000004200802261UL, 0x156000fc08000000UL, 0x0009000060020123UL,
  0x0000000900000000UL, 0x0000000900000009UL, 0x0000000000000000UL, 0x0000000107dc03f7UL,
  0x00000000600c0043UL, 0x600b7c0020422042UL, 0x6100028300000001UL, 0x000033abff9e26aaUL,
  0x000065abff4d2104UL, 0x000040a3ff2e2c3fUL, 0x0000f33c02444680UL, 0x00000cecfd6f2dd7UL,
  0x00008c240225427aUL, 0x0000e93500ba3103UL, 0x000086d701762056UL, 0x00002b65fe7f2e7eUL,
  0x00007a3500893be6UL, 0x6400004200802281UL, 0x1500000008000000UL, 0x0007000064027c00UL,
  0x0000400064070043UL, 0x640c004300000020UL, 0x1041104100000000UL, 0x1c007c0000802041UL,
  0x1c0201230008c000UL, 0x00010001342e3870UL, 0x0000002800280014UL, 0x0000000200000014UL,
  0x0000002400000000UL, 0x1c0c004200100000UL, 0x0000000700000006UL, 0x000000021c0d0043UL,
  0x1c110043342e38d7UL, 0x0000000000000000UL, 0x38007c0000802121UL, 0x380200430008c184UL,
  0x0000019071127d20UL, 0x00000000380500c3UL, 0x0000000000000000UL, 0x0000002400000000UL,
  0x380c004200100000UL, 0x0000000700000006UL, 0x00000001380d0043UL, 0x3811004371127eefUL,
  0x0000000800000000UL, 0x28007c00008020a1UL, 0x280200430008010cUL, 0x0000000a342e38a0UL,
  0x00000000280500c3UL, 0x000000000000000aUL, 0x0000002400000000UL, 0x280c004200100000UL,
  0x0000000700000006UL, 0x00000001280d0043UL, 0x28110043342e38efUL, 0x0000000000000000UL,
  0x0000002910077c00UL, 0x00000005100c0063UL, 0x0000001500000013UL, 0x0115011410207c00UL,
  0x0000002710227c00UL, 0x0000000110007c00UL, 0x3c007c0028002001UL, 0x6000200100000741UL,
  0x1c00200164002001UL, 0x28007fe438002001UL, 0x0000000000000064UL, 0x0000000210007c00UL,
  0x0000006410000424UL, 0x10007c0000000000UL, 0x10007bc440000000UL, 0x0000000000000064UL,
  0x0000000010077c00UL, 0x00000000100c0063UL, 0x0000000000000000UL, 0x0000000010207c00UL,
  0x0000000010227c00UL, 0x0000000228007c00UL, 0x0000006428000424UL, 0x28007c0000000000UL,
  0x28007bc440000000UL, 0x0000000000000064UL, 0x3c007c00008000a1UL, 0x3c00042400000002UL,
  0x0000000000000064UL, 0x400000003c007c00UL, 0x000000643c007bc4UL, 0x0080014100000000UL,
  0x0800000260007c00UL, 0x0000006460000424UL, 0x60007c0000000000UL, 0x60007bc448000000UL,
  0x0000000000000064UL, 0x64007c0000800261UL, 0x6400042408000002UL, 0x0000000000000064UL,
  0x4800000064007c00UL, 0x0000006464007bc4UL, 0x0080028100000000UL, 0x000000021c007c00UL,
  0x000000641c000424UL, 0x1c007c0000000000UL, 0x1c007bc440000000UL, 0x0000000000000064UL,
  0x38007c0000800041UL, 0x3800042400000002UL, 0x0000000000000064UL, 0x4000000038007c00UL,
  0x0000006438007bc4UL, 0x0080012100000000UL, 0x008021610000035dUL, 0x0010003440007c00UL,
  0x140a0101400200e3UL, 0x1063420200001100UL, 0xffff00000001000aUL, 0x00000001ffff0000UL,
  0x00000000400a7c00UL, 0x00000000400d7c00UL, 0x68000042008022a1UL, 0x156000fc08000000UL,
  0x000a000068020123UL, 0x0000001300000000UL, 0x0000002700000013UL, 0x0000000000000000UL,
  0x00000001076403edUL, 0x00000000680c0043UL, 0x680b7c0020422042UL, 0x69000a0300000001UL,
  0x0000a6deffe925c0UL, 0x0000844c0196088aUL, 0x00008519ff5b23f2UL, 0x000086650105191fUL,
  0x0000f378006c31fbUL, 0x0000222f01d90ffaUL, 0x0000a8bc02b81dfdUL, 0x0000698eff972251UL,
  0x0000164afddf4c65UL, 0x0000be0501383417UL, 0x0000ec13ff661d2fUL, 0x0000ca60009212ebUL,
  0x00003dbd019c133bUL, 0x00000edf0149264bUL, 0x0000d855023107a2UL, 0x0000e14d01412161UL,
  0x00002900006339f8UL, 0x00009498015c37d2UL, 0x00000526022c170dUL, 0x0000e8dc00df1a7dUL,
  0x0000d75c00371e1bUL, 0x0000d3c2ff422cd5UL, 0x00001867001232fdUL, 0x00008dff01123484UL,
  0x0000f33902cf0eb6UL, 0x000016cafbc73aa8UL, 0x0000202effd118d5UL, 0x000006a0ff3720b4UL,
  0x0000f35f02921443UL, 0x0000b16ffd8b32adUL, 0x0000265702420bbfUL, 0x00007a0efe4c26a8UL,
  0x0000a70dfec51daaUL, 0x00008968ffb72ed8UL, 0x00008f9a01a22708UL, 0x00006e0101820ff3UL,
  0x000013d101c11770UL, 0x00007e1e01b3268eUL, 0x0000875502ec2a9aUL, 0x0000bd5000ec0ed2UL,
  0x5c00004200802241UL, 0x1500006008000000UL, 0x000780005c027c00UL, 0xca5a5a0e5c070043UL,
  0x5c0c004300000012UL, 0x1041104100000000UL, 0x54007c0000802201UL, 0x540200430174104cUL,
  0x0210100f00087f80UL, 0x0000000055000203UL, 0x0000000200000001UL, 0x0000000400000003UL,
  0x0000000600000005UL, 0x0000000800000007UL, 0x0000000a00000009UL, 0x0000000c0000000bUL,
  0x0000000e0000000dUL, 0x560005c3000000cfUL, 0x0000000040000000UL, 0x0000000040000000UL,
  0x0000000040000000UL, 0x0000000040000000UL, 0x0000000040000000UL, 0x0000000040000000UL,
  0x0000000040000000UL, 0x0000000040000000UL, 0x0000000040000000UL, 0x0000000040000000UL,
  0x0000000040000000UL, 0x0000000040000000UL, 0x0000000040000000UL, 0x0000000040000000UL,
  0x0000000040000000UL, 0x0000000040000000UL, 0x0000000040000000UL, 0x0000000040000000UL,
  0x0000000040000000UL, 0x0000000040000000UL, 0x0000000040000000UL, 0x0000000040000000UL,
  0x0000000040000000UL, 0x20007c0000802061UL, 0x2002004300080100UL, 0x0000000a342e38a0UL,
  0x00000000200500c3UL, 0x000000010000000aUL, 0x0000002400000000UL, 0x200c004200100000UL,
  0x0000000700000006UL, 0x00000002200d0043UL, 0x20110043342e38efUL, 0x0000000000000000UL,
  0x24007c0000802081UL, 0x2402004300080184UL, 0x0000019071127eb0UL, 0x00000000240500c3UL,
  0x0000000000000000UL, 0x0000002400000000UL, 0x240c004200100000UL, 0x0000000700000006UL,
  0x00000001240d0043UL, 0x241100437112807fUL, 0x0000000800000000UL, 0x28007c00008020a1UL,
  0x2802004300080108UL, 0x00000014342e3870UL, 0x00000000280500c3UL, 0x0000000000000014UL,
  0x0000002400000000UL, 0x280c004200100000UL, 0x0000000700000006UL, 0x00000002280d0043UL,
  0x28110043342e38d7UL, 0x0000000000000000UL, 0x0000002110077c00UL, 0x00000007100f0043UL,
  0x101c7c0000000009UL, 0x101e7c0000000025UL, 0x10247c000000002bUL, 0x10007c0000000017UL,
  0x2800200100000001UL, 0x0010003540007c00UL, 0x5c00200154002001UL, 0x2000200168002001UL,
  0x28007fe424002001UL, 0x0000000000000064UL, 0x0000000210007c00UL, 0x0000006410000424UL,
  0x10007c0000000000UL, 0x10007bc440000000UL, 0x0000000000000064UL, 0x0000000010077c00UL,
  0x00000000100f0043UL, 0x101c7c0000000000UL, 0x101e7c0000000000UL, 0x10247c0000000000UL,
  0x28007c0000000000UL, 0x2800042400000002UL, 0x0000000000000064UL, 0x4000000028007c00UL,
  0x0000006428007bc4UL, 0x008000a100000000UL, 0x0000000240007c00UL, 0x0000006440000424UL,
  0x40007c0000000000UL, 0x40007bc440000000UL, 0x0000000000000064UL, 0x54007c0000800161UL,
  0x5400042400881082UL, 0x0000000000000064UL, 0x4088108054007c00UL, 0x0000006454007bc4UL,
  0x0080020100000000UL, 0x080000025c007c00UL, 0x000000645c000424UL, 0x5c007c0000000000UL,
  0x5c007bc448000000UL, 0x0000000000000064UL, 0x68007c0000800241UL, 0x6800042408000002UL,
  0x0000000000000064UL, 0x4800000068007c00UL, 0x0000006468007bc4UL, 0x008002a100000000UL,
  0x0000000220007c00UL, 0x0000006420000424UL, 0x20007c0000000000UL, 0x20007bc440000000UL,
  0x0000000000000064UL, 0x24007c0000800061UL, 0x2400042400000002UL, 0x0000000000000064UL,
  0x4000000024007c00UL, 0x0000006424007bc4UL, 0x0080008100000000UL, 0x008022610000037dUL,
  0x0800000060000042UL, 0x60027c0009000f60UL, 0x6007004300000000UL, 0x0000000100010001UL,
  0x00000000600c0043UL, 0x0080228110411041UL, 0x0800000064000042UL, 0x64027c0009000160UL,
  0x6407004300038007UL, 0x0000400000004000UL, 0x00000000640c0043UL, 0x0080224110412042UL,
  0x080000005c000042UL, 0x5c027c0005000160UL, 0x5c07004300099003UL, 0x0000a03381945528UL,
  0x000000005c0c0043UL, 0x0080212110412042UL, 0x0008010438007c00UL, 0x342e000038020043UL,
  0x380500c300003868UL, 0x0000386800000000UL, 0x0000000000000000UL, 0x0010000000000024UL,
  0x00000006380c0042UL, 0x380d004300000007UL, 0x342e38a700000001UL, 0x0000000038110043UL,
  0x0080210100000000UL, 0x0008010034007c00UL, 0x342e387034020043UL, 0x340500c300000028UL,
  0x0000000000000000UL, 0x0000002800000169UL, 0x0010000000000024UL, 0x00000006340c0042UL,
  0x340d004300000007UL, 0x342e38d7000002d2UL, 0x0000000034110043UL, 0x008020c100000000UL,
  0x000801042c007c00UL, 0x342e00002c020043UL, 0x2c0500c300003868UL, 0x0000386800000000UL,
  0x0000000000000000UL, 0x0010000000000024UL, 0x000000062c0c0042UL, 0x2c0d004300000007UL,
  0x342e38a700000001UL, 0x000000002c110043UL, 0x0080208100000000UL, 0x0008010024007c00UL,
  0x342e387024020043UL, 0x240500c300000028UL, 0x0000000000000000UL, 0x0000002800000169UL,
  0x0010000000000024UL, 0x00000006240c0042UL, 0x240d004300000007UL, 0x342e38d700000169UL,
  0x0000000024110043UL, 0x0080200100000000UL, 0x0008010c14007c00UL, 0x3427000014020043UL,
  0x140500c300003868UL, 0x0000386800000000UL, 0x0000000000000000UL, 0x0010000000000024UL,
  0x00000006140c0042UL, 0x140d004300000007UL, 0x342738a700000001UL, 0x0000000014110043UL,
  0x10027c0000000000UL, 0x101e00c300000025UL, 0x0000000900000029UL, 0x0000001100000013UL,
  0x0000000d00000027UL, 0x0000000110007c00UL, 0x5c00200114002001UL, 0x6400200160002001UL,
  0x2c00200124002001UL, 0x3800200134002001UL, 0x0000006414007fe4UL, 0x10007c0000000000UL,
  0x1000042400000002UL, 0x0000000000000064UL, 0x4000000010007c00UL, 0x0000006410007bc4UL,
  0x10027c0000000000UL, 0x101e00c300000000UL, 0x0000000000000000UL, 0x0000000000000000UL,
  0x0000000000000000UL, 0x0000000214007c00UL, 0x0000006414000424UL, 0x14007c0000000000UL,
  0x14007bc440000000UL, 0x0000000000000064UL, 0x5c007c0000800001UL, 0x5c00042408000002UL,
  0x0000000000000064UL, 0x480000005c007c00UL, 0x000000645c007bc4UL, 0x0080024100000000UL,
  0x0800000260007c00UL, 0x0000006460000424UL, 0x60007c0000000000UL, 0x60007bc448000000UL,
  0x0000000000000064UL, 0x64007c0000800261UL, 0x6400042408000002UL, 0x0000000000000064UL,
  0x4800000064007c00UL, 0x0000006464007bc4UL, 0x0080028100000000UL, 0x0000000224007c00UL,
  0x0000006424000424UL, 0x24007c0000000000UL, 0x24007bc440000000UL, 0x0000000000000064UL,
  0x2c007c0000800081UL, 0x2c00042400000002UL, 0x0000000000000064UL, 0x400000002c007c00UL,
  0x000000642c007bc4UL, 0x008000c100000000UL, 0x0000000234007c00UL, 0x0000006434000424UL,
  0x34007c0000000000UL, 0x34007bc440000000UL, 0x0000000000000064UL, 0x38007c0000800101UL,
  0x3800042400000002UL, 0x0000000000000064UL, 0x4000000038007c00UL, 0x0000006438007bc4UL,
  0x0080012100000000UL, 0x008021810000039dUL, 0x0000005444007c00UL, 0x18140101440200e3UL,
  0x10b7400400001100UL, 0x017b00000013017cUL, 0x0017003000120000UL, 0x00000000440a7c00UL,
  0x00000005440c0043UL, 0x008021a100000000UL, 0x0000004048007c00UL, 0x18140101480200e3UL,
  0x10a3440000001100UL, 0x017b00000013017cUL, 0x002f183000120000UL, 0x00000000480a7c00UL,
  0x00000005480c0043UL, 0x008022a100000000UL, 0x0800000068000042UL, 0x68020123156000fcUL,
  0x0000000000098000UL, 0x000021d700000017UL, 0x000000000001526fUL, 0x044403e900000000UL,
  0x680c004300000001UL, 0x2042204200000000UL, 0x00000001680b7c00UL, 0xffa8124169003c03UL,
  0xff88001a00003f8bUL, 0xff7c0e2600002217UL, 0xff4c2af600003aaaUL, 0xff8d18290000e292UL,
  0xff8715a400000678UL, 0xff8b1d33000061bdUL, 0xff6f30c20000bff6UL, 0xff860e1000001efbUL,
  0xff6f461d00003fcaUL, 0xff8e09d40000b157UL, 0xff813c7e00003b32UL, 0xff9315750000d3adUL,
  0xff840d3d0000d138UL, 0xff8b0dc20000eecdUL, 0xff82146100007837UL, 0xff6f0d320000a444UL,
  0xff8c0a780000c559UL, 0xff3550d90000467cUL, 0xff940b7400006081UL, 0xff8804c3000047c0UL,
  0xff8507bb0000b4abUL, 0xff4223ef00006618UL, 0xff910e910000d861UL, 0xff87171500001c3cUL,
  0xff791d2300003bcbUL, 0xff84402200003639UL, 0xff5a1d0600006615UL, 0xff7c1306000094ecUL,
  0xff90247c0000b49aUL, 0xff7c0c040000a18aUL, 0xff7814bb0000fa1bUL, 0xff850ff7000066d3UL,
  0xff8b0902000019a6UL, 0xff921647000088d6UL, 0xff900c7d000072c7UL, 0xff8d1180000028a3UL,
  0xff8d077000006e16UL, 0xff87236a0000c69bUL, 0xffa46f3100005358UL, 0xff901ff30000cd74UL,
  0xff5a766f0000b264UL, 0xffa84fc40000f3a1UL, 0xff8415030000cb40UL, 0xff810d8b0000956eUL,
  0xff89100f0000ec10UL, 0xff8f10ca0000a696UL, 0xff88000100007188UL, 0xff8612f800001429UL,
  0xff9461380000f79eUL, 0xff6e6d8f0000822cUL, 0xff86225300009dd8UL, 0xff7d0ccf00006cabUL,
  0xff920f41000094a9UL, 0xff8018330000a5e2UL, 0xff3154150000a06eUL, 0xff850b2f00003fd6UL,
  0xff860f8700004c0cUL, 0xff77191d0000b317UL, 0xff691b130000b6e4UL, 0xff830d8f0000600fUL,
  0xff850d390000b411UL, 0xff7f0dc300001b7bUL, 0xff981af0000010c7UL, 0xff911017000057e4UL,
  0xff7f23de0000b4bcUL, 0xff851e210000ed1fUL, 0xff89110e00009fc8UL, 0xff761c3d0000373dUL,
  0xff860deb00001a14UL, 0xff7413d80000ec3cUL, 0xff940c8600000d03UL, 0xff91134c0000614fUL,
  0xff88000300004566UL, 0xff723f0c000001acUL, 0xff8b258b0000285fUL, 0xff88000c000090c4UL,
  0xff633cc300001c79UL, 0xff8115d40000f757UL, 0xff8527ae00007497UL, 0xff713a340000e5d5UL,
  0xff7e5474000088d1UL, 0xff8a13ea00009911UL, 0xff7328ad000089a1UL, 0xff8c0c8d00009776UL,
  0xff900d04000052b4UL, 0xff88044200006608UL, 0xff7c3e760000dc62UL, 0xff920e390000fd68UL,
  0xff8d0af20000ee9fUL, 0xff8117c40000d55eUL, 0xff8800b70000f74fUL, 0xff962fc100005deeUL,
  0xff8e080700001e3aUL, 0xff980ee900003fceUL, 0xff880008000021b6UL, 0xffc701f800000e62UL,
  0xff532a1d0000fb67UL, 0xff4c4d9700009802UL, 0xff9727610000ce1bUL, 0xff8c0bb100005d10UL,
  0xff800d1d00008289UL, 0xff7531e200001c8bUL, 0xff780b48000070bcUL, 0xff63354600006fd7UL,
  0xff7c34e20000a226UL, 0xff840d310000c7e2UL, 0xffd252a100007c94UL, 0xff8e1a520000132eUL,
  0xff882ff500005e2bUL, 0xff910daa000023f7UL, 0xffc2297b00008fadUL, 0xff880601000078fdUL,
  0xff811cf700001e03UL, 0xff8f0c480000b2f8UL, 0xff89011c0000b8afUL, 0xff3747ab000065a4UL,
  0xff8800110000ee78UL, 0xff870e9100001e67UL, 0xff7d0bd200004bbdUL, 0xff96128b00009046UL,
  0xff4e30f800006520UL, 0xff8414aa00001c7dUL, 0xff9008d90000e315UL, 0xff792d0d0000fb99UL,
  0xff862abf00007010UL, 0xff68186b00006f42UL, 0xff860a9600005897UL, 0xff85143100002ed0UL,
  0xff8b0f5f00001776UL, 0xff88000c00008a09UL, 0xff860df300003292UL, 0xff8a0f29000083e4UL,
  0xff8a0f2000000277UL, 0xff89186a00008c4bUL, 0xfef26dc100005bedUL, 0xff8b476e0000c6e5UL,
  0xff910d6100008a46UL, 0xff9a42eb000039e2UL, 0xff5531430000da6cUL, 0xff7e4d5400003c06UL,
  0xff7d0cf30000a2d8UL, 0xff911c6800005718UL, 0xff7b0bc000003056UL, 0xff7a0cf100000623UL,
  0xffa119b900004917UL, 0xff870be000007586UL, 0xff7813e50000302fUL, 0xff8b15660000f6c7UL,
  0xff953b3f0000f862UL, 0xff8019630000f1a5UL, 0xff8724820000b159UL, 0xff8b10b40000c4acUL,
  0xff8924330000b0d4UL, 0xff8b130800003a79UL, 0xff8307c600002d9dUL, 0xff8b0a490000a45dUL,
  0xff7e12df0000a39bUL, 0xff9009cd0000fbe0UL, 0xff87000c00007528UL, 0xff7b3b500000ffadUL,
  0xff8f22660000509eUL, 0xffaa391c00006c81UL, 0xff960af20000ccdeUL, 0xff8709bb00000f8eUL,
  0xff7f0efc00000e9cUL, 0xff951f880000355cUL, 0xff8e0af30000bf83UL, 0xff850cd0000027d7UL,
  0xff6d3e360000132aUL, 0xff82346200001e0fUL, 0xff7817f700004bccUL, 0xff8b0bd9000063b4UL,
  0xff6513960000d38bUL, 0xff8618b80000722bUL, 0xff5d53a600005ee6UL, 0xff7e0cba000027a7UL,
  0xff7e0fe70000c81aUL, 0xff870ded00007facUL, 0xff99102800002ff8UL, 0xff991fb50000bc4dUL,
  0xff920f6f000072f3UL, 0xff800ece0000adc2UL, 0xff850a870000399aUL, 0xff8609c20000dc99UL,
  0xff8d17e80000c420UL, 0xff87023400002d4dUL, 0xff7531d800003a4eUL, 0xff8f3c850000b2a2UL,
  0xff8412840000ab0aUL, 0xff5a2cc200005a1bUL, 0xff880e0b0000699aUL, 0xff850cda0000a264UL,
  0xff7f0f1e0000ec37UL, 0xff8b066900000259UL, 0xffa639d70000c1d9UL, 0xff8617b50000b2dbUL,
  0xff87000100006711UL, 0xff7619ce0000feeaUL, 0xff7115290000e0b0UL, 0xff870aa600007af9UL,
  0xff870c16000078e4UL, 0xff730c4c00007a47UL, 0xff8509dd00008588UL, 0xff6c3aa20000cac1UL,
  0xff8e0c6f0000c277UL, 0xff7d25f70000e699UL, 0xff840e630000209cUL, 0xff2d64c500004c63UL,
  0xff6b220500004aa5UL, 0xff8a09ef000029caUL, 0xff7e19d100008643UL, 0xff900745000027b0UL,
  0xff8217650000cb86UL, 0xff83069000000c79UL, 0xff7b150000009658UL, 0xff850d4900006314UL,
  0xff8c0f5000003a08UL, 0xff7c1167000070cfUL, 0xff910c260000bcf7UL, 0xffbe004f0000bc81UL,
  0xff8907ad000020acUL, 0xff87007c0000e03bUL, 0xff8d1a6b0000c609UL, 0xff990f990000b1efUL,
  0xff8d0ac9000029a8UL, 0xff880c480000769fUL, 0xff8b0a4d00003a56UL, 0xff76267500007410UL,
  0xff9d394500002e38UL, 0xff4b2efc0000faa4UL, 0xff7a0f0400006f4cUL, 0xff1c3e1c0000d746UL,
  0xff9f0c9f0000a507UL, 0xff88000600000e96UL, 0xffa3348d00000be1UL, 0xff5639f10000b68cUL,
  0xff850c1a00003bd6UL, 0xff992d0f0000c1daUL, 0xff88000700008055UL, 0x008022410000095eUL,
  0x080000005c000042UL, 0x5c027c0015000060UL, 0x5c07004300070000UL, 0x0000000732d87cfdUL,
  0x000000005c0c0043UL, 0x0080206110411041UL, 0x0008c00020007c00UL, 0x3427000020020123UL,
  0x0028001400130013UL, 0x00000028000002f8UL, 0x0000000000000001UL, 0x0010000000000024UL,
  0x00000006200c0042UL, 0x200d004300000007UL, 0x342738a70000000aUL, 0x0000000020110043UL,
  0x0080208100000000UL, 0x0008c18424007c00UL, 0x710f070024020043UL, 0x240500c300002580UL,
  0x0000000000000000UL, 0x0000000000000000UL, 0x0010000000000024UL, 0x00000006240c0042UL,
  0x240d004300000007UL, 0x710f2cbf00000001UL, 0x0000000024110043UL, 0x008020a100000008UL,
